{
  "version": "1.0",
  "truncation": null,
  "padding": null,
  "added_tokens": [
    {
      "id": 0,
      "content": "<PAD>",
      "single_word": false,
      "lstrip": false,
      "rstrip": false,
      "normalized": false,
      "special": true
    },
    {
      "id": 1,
      "content": "<BOS>",
      "single_word": false,
      "lstrip": false,
      "rstrip": false,
      "normalized": false,
      "special": true
    },
    {
      "id": 2,
      "content": "<EOS>",
      "single_word": false,
      "lstrip": false,
      "rstrip": false,
      "normalized": false,
      "special": true
    },
    {
      "id": 3,
      "content": "<UNK>",
      "single_word": false,
      "lstrip": false,
      "rstrip": false,
      "normalized": false,
      "special": true
    }
  ],
  "normalizer": {
    "type": "NFKC"
  },
  "pre_tokenizer": {
    "type": "BertPreTokenizer"
  },
  "post_processor": null,
  "decoder": {
    "type": "BPEDecoder",
    "suffix": "</w>"
  },
  "model": {
    "type": "BPE",
    "dropout": null,
    "unk_token": null,
    "continuing_subword_prefix": null,
    "end_of_word_suffix": null,
    "fuse_unk": false,
    "byte_fallback": false,
    "vocab": {
      "<PAD>": 0,
      "<BOS>": 1,
      "<EOS>": 2,
      "<UNK>": 3,
      "\"": 4,
      "'": 5,
      "(": 6,
      ")": 7,
      "*": 8,
      "+": 9,
      ",": 10,
      "-": 11,
      ".": 12,
      "/": 13,
      "0": 14,
      "1": 15,
      "2": 16,
      "3": 17,
      "4": 18,
      "5": 19,
      "6": 20,
      "7": 21,
      "8": 22,
      ":": 23,
      "=": 24,
      ">": 25,
      "?": 26,
      "A": 27,
      "B": 28,
      "C": 29,
      "D": 30,
      "E": 31,
      "F": 32,
      "G": 33,
      "H": 34,
      "I": 35,
      "J": 36,
      "K": 37,
      "L": 38,
      "M": 39,
      "N": 40,
      "O": 41,
      "P": 42,
      "Q": 43,
      "R": 44,
      "S": 45,
      "T": 46,
      "U": 47,
      "V": 48,
      "W": 49,
      "X": 50,
      "Y": 51,
      "[": 52,
      "]": 53,
      "_": 54,
      "`": 55,
      "a": 56,
      "b": 57,
      "c": 58,
      "d": 59,
      "e": 60,
      "f": 61,
      "g": 62,
      "h": 63,
      "i": 64,
      "j": 65,
      "k": 66,
      "l": 67,
      "m": 68,
      "n": 69,
      "o": 70,
      "p": 71,
      "q": 72,
      "r": 73,
      "s": 74,
      "t": 75,
      "u": 76,
      "v": 77,
      "w": 78,
      "x": 79,
      "y": 80,
      "z": 81,
      "in": 82,
      "on": 83,
      "th": 84,
      "er": 85,
      "at": 86,
      "an": 87,
      "to": 88,
      "ing": 89,
      "es": 90,
      "or": 91,
      "en": 92,
      "yth": 93,
      "ython": 94,
      "ow": 95,
      "st": 96,
      "ar": 97,
      "le": 98,
      "al": 99,
      "ti": 100,
      "Python": 101,
      "re": 102,
      "as": 103,
      "How": 104,
      "li": 105,
      "and": 106,
      "ro": 107,
      "me": 108,
      "of": 109,
      "um": 110,
      "ra": 111,
      "wi": 112,
      "co": 113,
      "se": 114,
      "ate": 115,
      "de": 116,
      "with": 117,
      "the": 118,
      "ent": 119,
      "un": 120,
      "te": 121,
      "fi": 122,
      "tion": 123,
      "di": 124,
      "lo": 125,
      "python": 126,
      "ge": 127,
      "ch": 128,
      "ct": 129,
      "up": 130,
      "ul": 131,
      "sing": 132,
      "si": 133,
      "for": 134,
      "ter": 135,
      "ri": 136,
      "list": 137,
      "ce": 138,
      "is": 139,
      "ction": 140,
      "ut": 141,
      "mp": 142,
      "rom": 143,
      "do": 144,
      "from": 145,
      "ver": 146,
      "ata": 147,
      "ad": 148,
      "val": 149,
      "ati": 150,
      "con": 151,
      "py": 152,
      "ab": 153,
      "andas": 154,
      "ck": 155,
      "ve": 156,
      "str": 157,
      "it": 158,
      "all": 159,
      "et": 160,
      "ex": 161,
      "mo": 162,
      "ur": 163,
      "pe": 164,
      "no": 165,
      "ma": 166,
      "using": 167,
      "valu": 168,
      "ang": 169,
      "est": 170,
      "ation": 171,
      "ed": 172,
      "lic": 173,
      "string": 174,
      "num": 175,
      "col": 176,
      "qu": 177,
      "data": 178,
      "wh": 179,
      "ment": 180,
      "ay": 181,
      "ly": 182,
      "ci": 183,
      "rame": 184,
      "ror": 185,
      "las": 186,
      "ke": 187,
      "ango": 188,
      "jango": 189,
      "unction": 190,
      "umn": 191,
      "Wh": 192,
      "par": 193,
      "file": 194,
      "uplic": 195,
      "ulti": 196,
      "duplic": 197,
      "ting": 198,
      "column": 199,
      "function": 200,
      "ame": 201,
      "not": 202,
      "pro": 203,
      "ray": 204,
      "duplicate": 205,
      "ind": 206,
      "ces": 207,
      "can": 208,
      "el": 209,
      "op": 210,
      "able": 211,
      "get": 212,
      "array": 213,
      "pandas": 214,
      "res": 215,
      "ect": 216,
      "mat": 217,
      "multi": 218,
      "out": 219,
      "sion": 220,
      "pa": 221,
      "lot": 222,
      "ary": 223,
      "ine": 224,
      "ther": 225,
      "by": 226,
      "wor": 227,
      "Django": 228,
      "ject": 229,
      "les": 230,
      "if": 231,
      "ob": 232,
      "Pandas": 233,
      "way": 234,
      "ari": 235,
      "frame": 236,
      "po": 237,
      "ser": 238,
      "Er": 239,
      "lass": 240,
      "use": 241,
      "ta": 242,
      "lement": 243,
      "ty": 244,
      "Error": 245,
      "plot": 246,
      "il": 247,
      "ub": 248,
      "ap": 249,
      "vi": 250,
      "values": 251,
      "Re": 252,
      "ted": 253,
      "int": 254,
      "we": 255,
      "object": 256,
      "how": 257,
      "ort": 258,
      "class": 259,
      "time": 260,
      "ple": 261,
      "ol": 262,
      "Py": 263,
      "fer": 264,
      "value": 265,
      "ber": 266,
      "ic": 267,
      "one": 268,
      "set": 269,
      "numpy": 270,
      "du": 271,
      "la": 272,
      "diction": 273,
      "che": 274,
      "der": 275,
      "bu": 276,
      "row": 277,
      "In": 278,
      "cre": 279,
      "multiple": 280,
      "into": 281,
      "number": 282,
      "lib": 283,
      "per": 284,
      "od": 285,
      "inst": 286,
      "xt": 287,
      "us": 288,
      "wo": 289,
      "arg": 290,
      "end": 291,
      "ne": 292,
      "What": 293,
      "tri": 294,
      "fa": 295,
      "when": 296,
      "Con": 297,
      "dataframe": 298,
      "am": 299,
      "does": 300,
      "work": 301,
      "Data": 302,
      "be": 303,
      "code": 304,
      "element": 305,
      "vert": 306,
      "date": 307,
      "imp": 308,
      "read": 309,
      "comp": 310,
      "two": 311,
      "sc": 312,
      "vari": 313,
      "bo": 314,
      "com": 315,
      "dif": 316,
      "sub": 317,
      "key": 318,
      "line": 319,
      "tor": 320,
      "are": 321,
      "sh": 322,
      "ating": 323,
      "ig": 324,
      "put": 325,
      "bas": 326,
      "ator": 327,
      "pt": 328,
      "ence": 329,
      "dex": 330,
      "bet": 331,
      "tr": 332,
      "my": 333,
      "iz": 334,
      "meth": 335,
      "ac": 336,
      "Co": 337,
      "ument": 338,
      "Is": 339,
      "dule": 340,
      "name": 341,
      "ange": 342,
      "ding": 343,
      "cor": 344,
      "cur": 345,
      "ist": 346,
      "differ": 347,
      "test": 348,
      "ween": 349,
      "Why": 350,
      "urn": 351,
      "low": 352,
      "between": 353,
      "spe": 354,
      "method": 355,
      "id": 356,
      "app": 357,
      "cess": 358,
      "that": 359,
      "ener": 360,
      "del": 361,
      "so": 362,
      "error": 363,
      "columns": 364,
      "age": 365,
      "module": 366,
      "gra": 367,
      "other": 368,
      "inter": 369,
      "Frame": 370,
      "text": 371,
      "Ch": 372,
      "ult": 373,
      "call": 374,
      "roup": 375,
      "cal": 376,
      "ure": 377,
      "find": 378,
      "form": 379,
      "create": 380,
      "ret": 381,
      "sor": 382,
      "lists": 383,
      "tain": 384,
      "index": 385,
      "without": 386,
      "ile": 387,
      "Num": 388,
      "Get": 389,
      "ers": 390,
      "ima": 391,
      "ip": 392,
      "argument": 393,
      "requ": 394,
      "act": 395,
      "yn": 396,
      "ance": 397,
      "ript": 398,
      "eld": 399,
      "ave": 400,
      "over": 401,
      "sp": 402,
      "ite": 403,
      "run": 404,
      "ext": 405,
      "iter": 406,
      "return": 407,
      "check": 408,
      "speci": 409,
      "char": 410,
      "min": 411,
      "loop": 412,
      "load": 413,
      "ctor": 414,
      "dict": 415,
      "DataFrame": 416,
      "move": 417,
      "files": 418,
      "plotlib": 419,
      "av": 420,
      "mes": 421,
      "there": 422,
      "type": 423,
      "bute": 424,
      "ue": 425,
      "but": 426,
      "pla": 427,
      "clo": 428,
      "ag": 429,
      "De": 430,
      "ning": 431,
      "tribute": 432,
      "ble": 433,
      "group": 434,
      "QL": 435,
      "unt": 436,
      "tom": 437,
      "convert": 438,
      "fic": 439,
      "und": 440,
      "au": 441,
      "variable": 442,
      "ot": 443,
      "sed": 444,
      "comm": 445,
      "ll": 446,
      "word": 447,
      "lask": 448,
      "add": 449,
      "gener": 450,
      "iv": 451,
      "pr": 452,
      "SQL": 453,
      "ension": 454,
      "rows": 455,
      "pre": 456,
      "elements": 457,
      "model": 458,
      "django": 459,
      "dire": 460,
      "Can": 461,
      "Find": 462,
      "any": 463,
      "pres": 464,
      "log": 465,
      "has": 466,
      "image": 467,
      "ok": 468,
      "ach": 469,
      "lit": 470,
      "af": 471,
      "cul": 472,
      "script": 473,
      "ensor": 474,
      "Using": 475,
      "Un": 476,
      "om": 477,
      "gn": 478,
      "strings": 479,
      "equ": 480,
      "exce": 481,
      "make": 482,
      "lin": 483,
      "ph": 484,
      "im": 485,
      "ec": 486,
      "ack": 487,
      "another": 488,
      "ir": 489,
      "new": 490,
      "Ex": 491,
      "import": 492,
      "ffi": 493,
      "ast": 494,
      "ong": 495,
      "based": 496,
      "ht": 497,
      "teg": 498,
      "ption": 499,
      "ou": 500,
      "tup": 501,
      "item": 502,
      "charact": 503,
      "ates": 504,
      "ery": 505,
      "indow": 506,
      "ract": 507,
      "ables": 508,
      "ffici": 509,
      "ested": 510,
      "same": 511,
      "pack": 512,
      "ated": 513,
      "len": 514,
      "install": 515,
      "different": 516,
      "print": 517,
      "bin": 518,
      "PI": 519,
      "place": 520,
      "ations": 521,
      "gram": 522,
      "wri": 523,
      "fficient": 524,
      "mor": 525,
      "Mo": 526,
      "side": 527,
      "format": 528,
      "lay": 529,
      "output": 530,
      "field": 531,
      "oo": 532,
      "only": 533,
      "integ": 534,
      "dition": 535,
      "pas": 536,
      "own": 537,
      "enti": 538,
      "Cre": 539,
      "Flask": 540,
      "attribute": 541,
      "rix": 542,
      "specific": 543,
      "parse": 544,
      "each": 545,
      "ON": 546,
      "ally": 547,
      "he": 548,
      "andom": 549,
      "ies": 550,
      "process": 551,
      "Al": 552,
      "fin": 553,
      "uni": 554,
      "ssi": 555,
      "order": 556,
      "aliz": 557,
      "chemy": 558,
      "Ad": 559,
      "cl": 560,
      "Convert": 561,
      "cs": 562,
      "curr": 563,
      "ustom": 564,
      "nested": 565,
      "numbers": 566,
      "contain": 567,
      "amp": 568,
      "after": 569,
      "open": 570,
      "ze": 571,
      "fir": 572,
      "arguments": 573,
      "Imp": 574,
      "giv": 575,
      "closed": 576,
      "request": 577,
      "while": 578,
      "map": 579,
      "datetime": 580,
      "first": 581,
      "command": 582,
      "flow": 583,
      "ctory": 584,
      "cessing": 585,
      "sign": 586,
      "ug": 587,
      "JS": 588,
      "fault": 589,
      "No": 590,
      "remove": 591,
      "ype": 592,
      "sy": 593,
      "da": 594,
      "ans": 595,
      "exist": 596,
      "variables": 597,
      "matrix": 598,
      "sum": 599,
      "change": 600,
      "ameter": 601,
      "you": 602,
      "than": 603,
      "Op": 604,
      "back": 605,
      "mb": 606,
      "vs": 607,
      "count": 608,
      "path": 609,
      "version": 610,
      "input": 611,
      "JSON": 612,
      "ssible": 613,
      "point": 614,
      "Numpy": 615,
      "Mat": 616,
      "ree": 617,
      "Type": 618,
      "parameter": 619,
      "random": 620,
      "pi": 621,
      "tive": 622,
      "reg": 623,
      "condition": 624,
      "match": 625,
      "Multi": 626,
      "Pro": 627,
      "ax": 628,
      "aries": 629,
      "ium": 630,
      "ew": 631,
      "ep": 632,
      "possible": 633,
      "flo": 634,
      "Lo": 635,
      "its": 636,
      "arch": 637,
      "ative": 638,
      "directory": 639,
      "functions": 640,
      "00": 641,
      "ful": 642,
      "ML": 643,
      "ase": 644,
      "ging": 645,
      "oper": 646,
      "default": 647,
      "exec": 648,
      "Se": 649,
      "ving": 650,
      "ute": 651,
      "non": 652,
      "this": 653,
      "lear": 654,
      "single": 655,
      "state": 656,
      "lect": 657,
      "within": 658,
      "result": 659,
      "ound": 660,
      "have": 661,
      "Do": 662,
      "exception": 663,
      "que": 664,
      "List": 665,
      "pass": 666,
      "pp": 667,
      "uld": 668,
      "user": 669,
      "For": 670,
      "vir": 671,
      "emp": 672,
      "custom": 673,
      "arrays": 674,
      "split": 675,
      "fig": 676,
      "ard": 677,
      "ival": 678,
      "objects": 679,
      "ames": 680,
      "eck": 681,
      "park": 682,
      "Tensor": 683,
      "ere": 684,
      "base": 685,
      "write": 686,
      "inside": 687,
      "stru": 688,
      "color": 689,
      "Open": 690,
      "lab": 691,
      "ivalent": 692,
      "Check": 693,
      "range": 694,
      "csv": 695,
      "proper": 696,
      "sup": 697,
      "tern": 698,
      "lines": 699,
      "ign": 700,
      "cy": 701,
      "cted": 702,
      "table": 703,
      "tra": 704,
      "led": 705,
      "fil": 706,
      "keys": 707,
      "ql": 708,
      "Alchemy": 709,
      "temp": 710,
      "indows": 711,
      "ich": 712,
      "gle": 713,
      "NumPy": 714,
      "ous": 715,
      "roug": 716,
      "max": 717,
      "rough": 718,
      "float": 719,
      "API": 720,
      "given": 721,
      "ask": 722,
      "ml": 723,
      "Par": 724,
      "through": 725,
      "rary": 726,
      "HT": 727,
      "dist": 728,
      "names": 729,
      "clu": 730,
      "late": 731,
      "efficient": 732,
      "like": 733,
      "sto": 734,
      "sci": 735,
      "very": 736,
      "statement": 737,
      "size": 738,
      "calcul": 739,
      "cont": 740,
      "amic": 741,
      "ynamic": 742,
      "OS": 743,
      "oogle": 744,
      "ling": 745,
      "Fast": 746,
      "Val": 747,
      "rel": 748,
      "Di": 749,
      "pip": 750,
      "replace": 751,
      "items": 752,
      "eras": 753,
      "CS": 754,
      "Comp": 755,
      "filter": 756,
      "defin": 757,
      "mis": 758,
      "tuple": 759,
      "ded": 760,
      "cer": 761,
      "lete": 762,
      "verting": 763,
      "ss": 764,
      "ant": 765,
      "Ser": 766,
      "son": 767,
      "mal": 768,
      "atch": 769,
      "gth": 770,
      "empty": 771,
      "Str": 772,
      "query": 773,
      "integer": 774,
      "fol": 775,
      "ca": 776,
      "program": 777,
      "En": 778,
      "Tr": 779,
      "rect": 780,
      "last": 781,
      "decor": 782,
      "ual": 783,
      "Po": 784,
      "gex": 785,
      "mory": 786,
      "url": 787,
      "pression": 788,
      "dim": 789,
      "instance": 790,
      "buil": 791,
      "posi": 792,
      "learn": 793,
      "named": 794,
      "Read": 795,
      "ak": 796,
      "fast": 797,
      "save": 798,
      "which": 799,
      "Set": 800,
      "port": 801,
      "cli": 802,
      "book": 803,
      "valid": 804,
      "kinter": 805,
      "gor": 806,
      "star": 807,
      "current": 808,
      "App": 809,
      "generator": 810,
      "struct": 811,
      "dep": 812,
      "Getting": 813,
      "ity": 814,
      "Fi": 815,
      "des": 816,
      "web": 817,
      "Create": 818,
      "reh": 819,
      "Sel": 820,
      "bar": 821,
      "lar": 822,
      "pon": 823,
      "spa": 824,
      "down": 825,
      "rehension": 826,
      "ust": 827,
      "oc": 828,
      "length": 829,
      "CV": 830,
      "access": 831,
      "tim": 832,
      "implement": 833,
      "ho": 834,
      "ges": 835,
      "doc": 836,
      "dimension": 837,
      "Selen": 838,
      "Selenium": 839,
      "package": 840,
      "classes": 841,
      "pes": 842,
      "cally": 843,
      "ference": 844,
      "hand": 845,
      "em": 846,
      "doesn": 847,
      "Gener": 848,
      "ying": 849,
      "graph": 850,
      "trans": 851,
      "unique": 852,
      "ith": 853,
      "su": 854,
      "ize": 855,
      "ava": 856,
      "Import": 857,
      "zer": 858,
      "label": 859,
      "vent": 860,
      "TypeError": 861,
      "sert": 862,
      "Sp": 863,
      "ences": 864,
      "sk": 865,
      "tori": 866,
      "tuples": 867,
      "ead": 868,
      "rames": 869,
      "None": 870,
      "stand": 871,
      "running": 872,
      "Run": 873,
      "large": 874,
      "certain": 875,
      "thread": 876,
      "sql": 877,
      "red": 878,
      "sort": 879,
      "Sc": 880,
      "decorator": 881,
      "cond": 882,
      "Col": 883,
      "env": 884,
      "every": 885,
      "tensor": 886,
      "os": 887,
      "CSV": 888,
      "Plot": 889,
      "words": 890,
      "day": 891,
      "mon": 892,
      "Finding": 893,
      "man": 894,
      "cket": 895,
      "indi": 896,
      "fore": 897,
      "erge": 898,
      "show": 899,
      "An": 900,
      "working": 901,
      "raw": 902,
      "ages": 903,
      "tebook": 904,
      "disp": 905,
      "some": 906,
      "sequ": 907,
      "server": 908,
      "Remove": 909,
      "memory": 910,
      "json": 911,
      "lication": 912,
      "sive": 913,
      "lat": 914,
      "ending": 915,
      "where": 916,
      "Windows": 917,
      "Ext": 918,
      "axis": 919,
      "unit": 920,
      "lock": 921,
      "groupby": 922,
      "lean": 923,
      "assign": 924,
      "bit": 925,
      "Ar": 926,
      "ress": 927,
      "let": 928,
      "used": 929,
      "view": 930,
      "Exce": 931,
      "orting": 932,
      "long": 933,
      "extract": 934,
      "At": 935,
      "String": 936,
      "separ": 937,
      "asyn": 938,
      "Google": 939,
      "St": 940,
      "ore": 941,
      "character": 942,
      "dynamic": 943,
      "Split": 944,
      "many": 945,
      "option": 946,
      "more": 947,
      "second": 948,
      "display": 949,
      "UR": 950,
      "lob": 951,
      "ry": 952,
      "ord": 953,
      "head": 954,
      "OpenCV": 955,
      "her": 956,
      "ample": 957,
      "Na": 958,
      "Value": 959,
      "tect": 960,
      "mess": 961,
      "regex": 962,
      "mean": 963,
      "ular": 964,
      "requests": 965,
      "library": 966,
      "atic": 967,
      "fix": 968,
      "instead": 969,
      "sim": 970,
      "ency": 971,
      "Be": 972,
      "ive": 973,
      "pair": 974,
      "Ke": 975,
      "generate": 976,
      "So": 977,
      "leg": 978,
      "perform": 979,
      "what": 980,
      "parti": 981,
      "cat": 982,
      "local": 983,
      "binary": 984,
      "methods": 985,
      "imum": 986,
      "upy": 987,
      "select": 988,
      "requi": 989,
      "wid": 990,
      "Ac": 991,
      "Keras": 992,
      "produ": 993,
      "upyter": 994,
      "tes": 995,
      "ST": 996,
      "ping": 997,
      "df": 998,
      "cu": 999,
      "folder": 1000,
      "URL": 1001,
      "init": 1002,
      "copy": 1003,
      "orn": 1004,
      "mod": 1005,
      "tool": 1006,
      "iti": 1007,
      "simp": 1008,
      "2D": 1009,
      "TP": 1010,
      "verse": 1011,
      "Creating": 1012,
      "search": 1013,
      "moving": 1014,
      "page": 1015,
      "Spark": 1016,
      "vel": 1017,
      "ializ": 1018,
      "apply": 1019,
      "oin": 1020,
      "series": 1021,
      "lim": 1022,
      "ical": 1023,
      "position": 1024,
      "cimal": 1025,
      "ules": 1026,
      "ution": 1027,
      "Dataframe": 1028,
      "ures": 1029,
      "river": 1030,
      "tribut": 1031,
      "recur": 1032,
      "tributes": 1033,
      "main": 1034,
      "term": 1035,
      "loc": 1036,
      "DF": 1037,
      "Attribute": 1038,
      "NaN": 1039,
      "viron": 1040,
      "atically": 1041,
      "auti": 1042,
      "correct": 1043,
      "calculate": 1044,
      "Efficient": 1045,
      "update": 1046,
      "Uni": 1047,
      "points": 1048,
      "autiful": 1049,
      "results": 1050,
      "ha": 1051,
      "template": 1052,
      "respon": 1053,
      "defined": 1054,
      "rid": 1055,
      "cannot": 1056,
      "igh": 1057,
      "Add": 1058,
      "mail": 1059,
      "Index": 1060,
      "via": 1061,
      "aving": 1062,
      "multipro": 1063,
      "net": 1064,
      "tual": 1065,
      "dis": 1066,
      "logging": 1067,
      "window": 1068,
      "mut": 1069,
      "times": 1070,
      "We": 1071,
      "frames": 1072,
      "Ret": 1073,
      "sel": 1074,
      "combin": 1075,
      "fy": 1076,
      "Use": 1077,
      "contains": 1078,
      "tag": 1079,
      "Extract": 1080,
      "vironment": 1081,
      "sol": 1082,
      "arning": 1083,
      "cv": 1084,
      "level": 1085,
      "argparse": 1086,
      "slow": 1087,
      "iled": 1088,
      "Group": 1089,
      "self": 1090,
      "pected": 1091,
      "Au": 1092,
      "Pr": 1093,
      "zip": 1094,
      "til": 1095,
      "setup": 1096,
      "case": 1097,
      "Iter": 1098,
      "Fil": 1099,
      "flask": 1100,
      "Dif": 1101,
      "kn": 1102,
      "database": 1103,
      "wise": 1104,
      "operator": 1105,
      "equal": 1106,
      "fail": 1107,
      "ff": 1108,
      "Qt": 1109,
      "Pas": 1110,
      "exists": 1111,
      "kit": 1112,
      "Pythonic": 1113,
      "repe": 1114,
      "missing": 1115,
      "most": 1116,
      "scipy": 1117,
      "Inst": 1118,
      "Not": 1119,
      "Key": 1120,
      "integers": 1121,
      "syn": 1122,
      "ross": 1123,
      "lamb": 1124,
      "pri": 1125,
      "block": 1126,
      "termine": 1127,
      "keep": 1128,
      "ell": 1129,
      "admin": 1130,
      "stem": 1131,
      "Does": 1132,
      "pytest": 1133,
      "found": 1134,
      "coding": 1135,
      "Field": 1136,
      "start": 1137,
      "fields": 1138,
      "Ima": 1139,
      "My": 1140,
      "glob": 1141,
      "conne": 1142,
      "best": 1143,
      "types": 1144,
      "cing": 1145,
      "loading": 1146,
      "virtual": 1147,
      "ght": 1148,
      "ton": 1149,
      "indices": 1150,
      "HTML": 1151,
      "content": 1152,
      "Tkinter": 1153,
      "attern": 1154,
      "cell": 1155,
      "caten": 1156,
      "Per": 1157,
      "letter": 1158,
      "Model": 1159,
      "tools": 1160,
      "10": 1161,
      "modules": 1162,
      "our": 1163,
      "ven": 1164,
      "depend": 1165,
      "OR": 1166,
      "Dis": 1167,
      "part": 1168,
      "merge": 1169,
      "month": 1170,
      "Up": 1171,
      "xml": 1172,
      "expected": 1173,
      "ear": 1174,
      "atas": 1175,
      "before": 1176,
      "rop": 1177,
      "Beautiful": 1178,
      "Me": 1179,
      "Res": 1180,
      "compar": 1181,
      "spark": 1182,
      "cate": 1183,
      "ight": 1184,
      "task": 1185,
      "bug": 1186,
      "images": 1187,
      "occurr": 1188,
      "under": 1189,
      "Wri": 1190,
      "cent": 1191,
      "Qu": 1192,
      "present": 1193,
      "iterate": 1194,
      "round": 1195,
      "64": 1196,
      "join": 1197,
      "anging": 1198,
      "Cal": 1199,
      "db": 1200,
      "direct": 1201,
      "figure": 1202,
      "parent": 1203,
      "ctori": 1204,
      "ses": 1205,
      "ake": 1206,
      "cker": 1207,
      "try": 1208,
      "lambda": 1209,
      "whe": 1210,
      "tp": 1211,
      "simple": 1212,
      "ark": 1213,
      "vide": 1214,
      "ont": 1215,
      "dates": 1216,
      "Jupyter": 1217,
      "dig": 1218,
      "decimal": 1219,
      "initi": 1220,
      "top": 1221,
      "sequence": 1222,
      "HTTP": 1223,
      "boo": 1224,
      "Ti": 1225,
      "existing": 1226,
      "ilar": 1227,
      "send": 1228,
      "File": 1229,
      "why": 1230,
      "zero": 1231,
      "ash": 1232,
      "relation": 1233,
      "delete": 1234,
      "exp": 1235,
      "inting": 1236,
      "static": 1237,
      "pattern": 1238,
      "herit": 1239,
      "ould": 1240,
      "uble": 1241,
      "ataset": 1242,
      "rest": 1243,
      "uring": 1244,
      "termin": 1245,
      "sli": 1246,
      "gorith": 1247,
      "orted": 1248,
      "gorithm": 1249,
      "vector": 1250,
      "Adding": 1251,
      "Soup": 1252,
      "Function": 1253,
      "plots": 1254,
      "auto": 1255,
      "setting": 1256,
      "message": 1257,
      "Image": 1258,
      "Sci": 1259,
      "returns": 1260,
      "SS": 1261,
      "should": 1262,
      "getting": 1263,
      "Calcul": 1264,
      "box": 1265,
      "aborn": 1266,
      "fit": 1267,
      "nect": 1268,
      "ild": 1269,
      "cular": 1270,
      "document": 1271,
      "rome": 1272,
      "serializ": 1273,
      "PyQt": 1274,
      "notebook": 1275,
      "tests": 1276,
      "structure": 1277,
      "anges": 1278,
      "The": 1279,
      "unicode": 1280,
      "alize": 1281,
      "WS": 1282,
      "gine": 1283,
      "ger": 1284,
      "ments": 1285,
      "Multiple": 1286,
      "inclu": 1287,
      "anti": 1288,
      "link": 1289,
      "Sub": 1290,
      "models": 1291,
      "Install": 1292,
      "tax": 1293,
      "rapy": 1294,
      "conda": 1295,
      "inu": 1296,
      "Class": 1297,
      "ream": 1298,
      "reading": 1299,
      "PIL": 1300,
      "Time": 1301,
      "ain": 1302,
      "ten": 1303,
      "similar": 1304,
      "bre": 1305,
      "Vi": 1306,
      "RE": 1307,
      "Web": 1308,
      "html": 1309,
      "Count": 1310,
      "ordin": 1311,
      "fe": 1312,
      "append": 1313,
      "auth": 1314,
      "Series": 1315,
      "space": 1316,
      "nor": 1317,
      "secu": 1318,
      "Inter": 1319,
      "ken": 1320,
      "verage": 1321,
      "oi": 1322,
      "gin": 1323,
      "Change": 1324,
      "alchemy": 1325,
      "args": 1326,
      "fied": 1327,
      "system": 1328,
      "train": 1329,
      "Sh": 1330,
      "global": 1331,
      "Java": 1332,
      "mock": 1333,
      "fill": 1334,
      "Requ": 1335,
      "creating": 1336,
      "Bo": 1337,
      "ull": 1338,
      "sm": 1339,
      "faster": 1340,
      "them": 1341,
      "built": 1342,
      "estamp": 1343,
      "ick": 1344,
      "AT": 1345,
      "fine": 1346,
      "Code": 1347,
      "roll": 1348,
      "np": 1349,
      "incre": 1350,
      "widget": 1351,
      "detect": 1352,
      "Replace": 1353,
      "True": 1354,
      "ties": 1355,
      "Call": 1356,
      "oid": 1357,
      "ren": 1358,
      "property": 1359,
      "ER": 1360,
      "ait": 1361,
      "Best": 1362,
      "Framework": 1363,
      "ise": 1364,
      "pythonic": 1365,
      "ms": 1366,
      "mi": 1367,
      "iterator": 1368,
      "Ob": 1369,
      "rap": 1370,
      "game": 1371,
      "Test": 1372,
      "ID": 1373,
      "Column": 1374,
      "MySQL": 1375,
      "Com": 1376,
      "Th": 1377,
      "eve": 1378,
      "bytes": 1379,
      "go": 1380,
      "UT": 1381,
      "gre": 1382,
      "Select": 1383,
      "XML": 1384,
      "secutive": 1385,
      "Rest": 1386,
      "matching": 1387,
      "To": 1388,
      "tree": 1389,
      "recursive": 1390,
      "lex": 1391,
      "Flow": 1392,
      "adding": 1393,
      "packages": 1394,
      "super": 1395,
      "alled": 1396,
      "numer": 1397,
      "whether": 1398,
      "sklearn": 1399,
      "Element": 1400,
      "sty": 1401,
      "even": 1402,
      "sets": 1403,
      "king": 1404,
      "pick": 1405,
      "labels": 1406,
      "framework": 1407,
      "Return": 1408,
      "const": 1409,
      "shell": 1410,
      "common": 1411,
      "aring": 1412,
      "Filter": 1413,
      "Unicode": 1414,
      "cio": 1415,
      "keyword": 1416,
      "selen": 1417,
      "selenium": 1418,
      "torch": 1419,
      "cap": 1420,
      "insert": 1421,
      "execute": 1422,
      "handle": 1423,
      "mark": 1424,
      "regular": 1425,
      "xl": 1426,
      "allow": 1427,
      "response": 1428,
      "reference": 1429,
      "Exception": 1430,
      "den": 1431,
      "determine": 1432,
      "context": 1433,
      "network": 1434,
      "called": 1435,
      "installed": 1436,
      "pairs": 1437,
      "havi": 1438,
      "project": 1439,
      "hash": 1440,
      "lection": 1441,
      "ape": 1442,
      "must": 1443,
      "email": 1444,
      "concaten": 1445,
      "Diction": 1446,
      "inherit": 1447,
      "Spe": 1448,
      "Request": 1449,
      "Array": 1450,
      "play": 1451,
      "als": 1452,
      "frequ": 1453,
      "inj": 1454,
      "driver": 1455,
      "tle": 1456,
      "look": 1457,
      "multip": 1458,
      "wee": 1459,
      "next": 1460,
      "autom": 1461,
      "DB": 1462,
      "Removing": 1463,
      "event": 1464,
      "pace": 1465,
      "Reading": 1466,
      "Text": 1467,
      "Mac": 1468,
      "Date": 1469,
      "slice": 1470,
      "Simp": 1471,
      "TK": 1472,
      "then": 1473,
      "maximum": 1474,
      "client": 1475,
      "vice": 1476,
      "alse": 1477,
      "ref": 1478,
      "compare": 1479,
      "2d": 1480,
      "scikit": 1481,
      "IN": 1482,
      "byte": 1483,
      "button": 1484,
      "identi": 1485,
      "properly": 1486,
      "separate": 1487,
      "dio": 1488,
      "connect": 1489,
      "coun": 1490,
      "txt": 1491,
      "coordin": 1492,
      "AWS": 1493,
      "dataset": 1494,
      "aking": 1495,
      "Print": 1496,
      "Or": 1497,
      "failed": 1498,
      "build": 1499,
      "reverse": 1500,
      "config": 1501,
      "asyncio": 1502,
      "just": 1503,
      "post": 1504,
      "greg": 1505,
      "ud": 1506,
      "behavi": 1507,
      "product": 1508,
      "inja": 1509,
      "3D": 1510,
      "debug": 1511,
      "ison": 1512,
      "distance": 1513,
      "dout": 1514,
      "except": 1515,
      "tkinter": 1516,
      "encoding": 1517,
      "stat": 1518,
      "Query": 1519,
      "both": 1520,
      "alle": 1521,
      "Reg": 1522,
      "timestamp": 1523,
      "ression": 1524,
      "Tree": 1525,
      "urce": 1526,
      "face": 1527,
      "algorithm": 1528,
      "ide": 1529,
      "mem": 1530,
      "enum": 1531,
      "PDF": 1532,
      "wait": 1533,
      "extension": 1534,
      "unittest": 1535,
      "Make": 1536,
      "site": 1537,
      "Generate": 1538,
      "seconds": 1539,
      "vious": 1540,
      "iterable": 1541,
      "loops": 1542,
      "tick": 1543,
      "download": 1544,
      "Cannot": 1545,
      "child": 1546,
      "boolean": 1547,
      "ribu": 1548,
      "cord": 1549,
      "address": 1550,
      "Log": 1551,
      "categor": 1552,
      "rip": 1553,
      "When": 1554,
      "was": 1555,
      "being": 1556,
      "groups": 1557,
      "grid": 1558,
      "ner": 1559,
      "support": 1560,
      "windows": 1561,
      "stdout": 1562,
      "right": 1563,
      "Coun": 1564,
      "IP": 1565,
      "ride": 1566,
      "sorted": 1567,
      "execut": 1568,
      "Unable": 1569,
      "style": 1570,
      "urllib": 1571,
      "Tor": 1572,
      "ield": 1573,
      "View": 1574,
      "ared": 1575,
      "GB": 1576,
      "Running": 1577,
      "session": 1578,
      "lassi": 1579,
      "transform": 1580,
      "ature": 1581,
      "ways": 1582,
      "store": 1583,
      "nd": 1584,
      "once": 1585,
      "ances": 1586,
      "example": 1587,
      "sole": 1588,
      "Passing": 1589,
      "Dict": 1590,
      "32": 1591,
      "cir": 1592,
      "small": 1593,
      "POS": 1594,
      "cation": 1595,
      "stop": 1596,
      "rac": 1597,
      "parsing": 1598,
      "avoid": 1599,
      "drop": 1600,
      "speed": 1601,
      "Fastest": 1602,
      "ess": 1603,
      "PySpark": 1604,
      "shape": 1605,
      "socket": 1606,
      "Sort": 1607,
      "sys": 1608,
      "source": 1609,
      "his": 1610,
      "ming": 1611,
      "Custom": 1612,
      "ler": 1613,
      "previous": 1614,
      "double": 1615,
      "dum": 1616,
      "rong": 1617,
      "else": 1618,
      "Excel": 1619,
      "standing": 1620,
      "fails": 1621,
      "Sum": 1622,
      "python3": 1623,
      "click": 1624,
      "annot": 1625,
      "stream": 1626,
      "apping": 1627,
      "ilable": 1628,
      "tk": 1629,
      "atter": 1630,
      "Object": 1631,
      "during": 1632,
      "legant": 1633,
      "http": 1634,
      "bound": 1635,
      "tf": 1636,
      "zone": 1637,
      "meta": 1638,
      "need": 1639,
      "Format": 1640,
      "Search": 1641,
      "io": 1642,
      "sue": 1643,
      "pl": 1644,
      "represent": 1645,
      "alph": 1646,
      "member": 1647,
      "ongo": 1648,
      "nel": 1649,
      "yield": 1650,
      "Clo": 1651,
      "less": 1652,
      "off": 1653,
      "stack": 1654,
      "Char": 1655,
      "required": 1656,
      "Torch": 1657,
      "S3": 1658,
      "old": 1659,
      "legend": 1660,
      "token": 1661,
      "console": 1662,
      "extra": 1663,
      "dot": 1664,
      "Setting": 1665,
      "header": 1666,
      "dify": 1667,
      "define": 1668,
      "writing": 1669,
      "mbed": 1670,
      "Cython": 1671,
      "standard": 1672,
      "Python3": 1673,
      "NL": 1674,
      "ron": 1675,
      "year": 1676,
      "asc": 1677,
      "ready": 1678,
      "available": 1679,
      "average": 1680,
      "optional": 1681,
      "letters": 1682,
      "One": 1683,
      "ground": 1684,
      "SSL": 1685,
      "AS": 1686,
      "slic": 1687,
      "exclu": 1688,
      "trying": 1689,
      "limit": 1690,
      "FastAPI": 1691,
      "syntax": 1692,
      "works": 1693,
      "who": 1694,
      "substring": 1695,
      "warning": 1696,
      "returning": 1697,
      "Notebook": 1698,
      "retri": 1699,
      "Script": 1700,
      "IPython": 1701,
      "sparse": 1702,
      "aded": 1703,
      "errors": 1704,
      "ank": 1705,
      "section": 1706,
      "mode": 1707,
      "digits": 1708,
      "lang": 1709,
      "wrap": 1710,
      "encode": 1711,
      "overl": 1712,
      "Pre": 1713,
      "gative": 1714,
      "decl": 1715,
      "ition": 1716,
      "orig": 1717,
      "Simple": 1718,
      "origin": 1719,
      "PyTorch": 1720,
      "Dynamic": 1721,
      "lite": 1722,
      "Trans": 1723,
      "ribution": 1724,
      "Name": 1725,
      "calling": 1726,
      "poly": 1727,
      "User": 1728,
      "keras": 1729,
      "password": 1730,
      "such": 1731,
      "conf": 1732,
      "std": 1733,
      "boto": 1734,
      "wrong": 1735,
      "cision": 1736,
      "Admin": 1737,
      "veral": 1738,
      "known": 1739,
      "pg": 1740,
      "ship": 1741,
      "comb": 1742,
      "POST": 1743,
      "False": 1744,
      "break": 1745,
      "ypes": 1746,
      "pping": 1747,
      "Order": 1748,
      "operation": 1749,
      "Fa": 1750,
      "mask": 1751,
      "Scrapy": 1752,
      "null": 1753,
      "mission": 1754,
      "togram": 1755,
      "finding": 1756,
      "chart": 1757,
      "Bu": 1758,
      "ili": 1759,
      "AN": 1760,
      "Random": 1761,
      "Parsing": 1762,
      "cry": 1763,
      "draw": 1764,
      "specify": 1765,
      "aggreg": 1766,
      "vers": 1767,
      "rowser": 1768,
      "across": 1769,
      "google": 1770,
      "several": 1771,
      "already": 1772,
      "pose": 1773,
      "board": 1774,
      "excel": 1775,
      "Hand": 1776,
      "squ": 1777,
      "uses": 1778,
      "optim": 1779,
      "active": 1780,
      "she": 1781,
      "untu": 1782,
      "hex": 1783,
      "their": 1784,
      "big": 1785,
      "seaborn": 1786,
      "Module": 1787,
      "pop": 1788,
      "testing": 1789,
      "mid": 1790,
      "sent": 1791,
      "unpack": 1792,
      "opencv": 1793,
      "Post": 1794,
      "know": 1795,
      "sq": 1796,
      "sist": 1797,
      "util": 1798,
      "Under": 1799,
      "ascript": 1800,
      "ill": 1801,
      "combine": 1802,
      "unk": 1803,
      "avascript": 1804,
      "Over": 1805,
      "created": 1806,
      "fication": 1807,
      "rot": 1808,
      "ped": 1809,
      "slower": 1810,
      "pickle": 1811,
      "paralle": 1812,
      "12": 1813,
      "complex": 1814,
      "NLTK": 1815,
      "uff": 1816,
      "evalu": 1817,
      "Accessing": 1818,
      "mething": 1819,
      "afe": 1820,
      "latten": 1821,
      "By": 1822,
      "Found": 1823,
      "override": 1824,
      "desc": 1825,
      "close": 1826,
      "Plotly": 1827,
      "exit": 1828,
      "Engine": 1829,
      "placing": 1830,
      "full": 1831,
      "Cel": 1832,
      "lxml": 1833,
      "Warning": 1834,
      "ale": 1835,
      "tags": 1836,
      "ft": 1837,
      "Celery": 1838,
      "root": 1839,
      "async": 1840,
      "supp": 1841,
      "filen": 1842,
      "dicts": 1843,
      "Implement": 1844,
      "until": 1845,
      "instances": 1846,
      "interval": 1847,
      "Apply": 1848,
      "upload": 1849,
      "scatter": 1850,
      "langu": 1851,
      "thes": 1852,
      "Calculate": 1853,
      "LE": 1854,
      "ints": 1855,
      "ager": 1856,
      "Detect": 1857,
      "ignore": 1858,
      "Line": 1859,
      "something": 1860,
      "spaces": 1861,
      "100": 1862,
      "With": 1863,
      "ually": 1864,
      "chain": 1865,
      "REST": 1866,
      "Writing": 1867,
      "na": 1868,
      "creen": 1869,
      "press": 1870,
      "Chrome": 1871,
      "arbit": 1872,
      "exact": 1873,
      "too": 1874,
      "gether": 1875,
      "original": 1876,
      "Pa": 1877,
      "formation": 1878,
      "cies": 1879,
      "high": 1880,
      "choi": 1881,
      "Gra": 1882,
      "width": 1883,
      "specified": 1884,
      "pyspark": 1885,
      "igr": 1886,
      "Server": 1887,
      "aconda": 1888,
      "bl": 1889,
      "sheet": 1890,
      "browser": 1891,
      "require": 1892,
      "video": 1893,
      "week": 1894,
      "kes": 1895,
      "Ne": 1896,
      "vate": 1897,
      "hel": 1898,
      "imports": 1899,
      "Access": 1900,
      "together": 1901,
      "linear": 1902,
      "correctly": 1903,
      "hour": 1904,
      "cast": 1905,
      "Sy": 1906,
      "inux": 1907,
      "quot": 1908,
      "Load": 1909,
      "numeric": 1910,
      "frequency": 1911,
      "Linux": 1912,
      "larg": 1913,
      "floats": 1914,
      "Li": 1915,
      "Net": 1916,
      "negative": 1917,
      "Exec": 1918,
      "Many": 1919,
      "rolling": 1920,
      "kw": 1921,
      "ulate": 1922,
      "medi": 1923,
      "around": 1924,
      "ward": 1925,
      "permut": 1926,
      "gress": 1927,
      "they": 1928,
      "scal": 1929,
      "ndarray": 1930,
      "encies": 1931,
      "angle": 1932,
      "pipe": 1933,
      "retrieve": 1934,
      "prox": 1935,
      "Pi": 1936,
      "PU": 1937,
      "action": 1938,
      "Loop": 1939,
      "ited": 1940,
      "chunk": 1941,
      "unc": 1942,
      "bind": 1943,
      "inx": 1944,
      "wit": 1945,
      "related": 1946,
      "patch": 1947,
      "pressions": 1948,
      "histogram": 1949,
      "Table": 1950,
      "cogn": 1951,
      "ized": 1952,
      "attr": 1953,
      "comma": 1954,
      "Checking": 1955,
      "racti": 1956,
      "Merge": 1957,
      "record": 1958,
      "importing": 1959,
      "nan": 1960,
      "Most": 1961,
      "changes": 1962,
      "blem": 1963,
      "disable": 1964,
      "occur": 1965,
      "40": 1966,
      "stract": 1967,
      "antic": 1968,
      "Driver": 1969,
      "commands": 1970,
      "complete": 1971,
      "timezone": 1972,
      "Form": 1973,
      "dantic": 1974,
      "Arg": 1975,
      "unding": 1976,
      "bra": 1977,
      "fo": 1978,
      "fier": 1979,
      "iteration": 1980,
      "delim": 1981,
      "indexing": 1982,
      "execution": 1983,
      "iling": 1984,
      "Changing": 1985,
      "lates": 1986,
      "issue": 1987,
      "gives": 1988,
      "recursion": 1989,
      "cum": 1990,
      "better": 1991,
      "passed": 1992,
      "xel": 1993,
      "ish": 1994,
      "Display": 1995,
      "contents": 1996,
      "host": 1997,
      "rol": 1998,
      "behavior": 1999,
      "zed": 2000,
      "Pool": 2001,
      "Plotting": 2002,
      "ternal": 2003,
      "include": 2004,
      "sco": 2005,
      "safe": 2006,
      "lower": 2007,
      "Making": 2008,
      "dtype": 2009,
      "tab": 2010,
      "ins": 2011,
      "redu": 2012,
      "kwargs": 2013,
      "outside": 2014,
      "Iterate": 2015,
      "see": 2016,
      "cle": 2017,
      "login": 2018,
      "terminal": 2019,
      "api": 2020,
      "mysql": 2021,
      "screen": 2022,
      "Jinja": 2023,
      "ves": 2024,
      "constru": 2025,
      "Recur": 2026,
      "interpre": 2027,
      "ivot": 2028,
      "zeros": 2029,
      "ility": 2030,
      "loaded": 2031,
      "increment": 2032,
      "Boo": 2033,
      "Vari": 2034,
      "about": 2035,
      "training": 2036,
      "tell": 2037,
      "appe": 2038,
      "Docker": 2039,
      "Down": 2040,
      "ctypes": 2041,
      "node": 2042,
      "Mock": 2043,
      "checking": 2044,
      "Cli": 2045,
      "docker": 2046,
      "ctories": 2047,
      "IO": 2048,
      "Sorting": 2049,
      "redirect": 2050,
      "force": 2051,
      "minimum": 2052,
      "Splitting": 2053,
      "uch": 2054,
      "copg": 2055,
      "Regex": 2056,
      "sycopg": 2057,
      "Lab": 2058,
      "Equ": 2059,
      "practi": 2060,
      "decode": 2061,
      "Matrix": 2062,
      "could": 2063,
      "refer": 2064,
      "relative": 2065,
      "IF": 2066,
      "PE": 2067,
      "Sto": 2068,
      "ture": 2069,
      "ues": 2070,
      "clos": 2071,
      "Cor": 2072,
      "sible": 2073,
      "Le": 2074,
      "prefix": 2075,
      "20": 2076,
      "sorting": 2077,
      "Pass": 2078,
      "layer": 2079,
      "Tra": 2080,
      "interpo": 2081,
      "days": 2082,
      "oring": 2083,
      "sqlite": 2084,
      "weight": 2085,
      "izing": 2086,
      "erging": 2087,
      "esca": 2088,
      "resh": 2089,
      "resol": 2090,
      "embed": 2091,
      "metri": 2092,
      "vectori": 2093,
      "skip": 2094,
      "sycopg2": 2095,
      "matically": 2096,
      "invalid": 2097,
      "preser": 2098,
      "help": 2099,
      "changing": 2100,
      "messages": 2101,
      "parallel": 2102,
      "font": 2103,
      "delta": 2104,
      "Counting": 2105,
      "ditional": 2106,
      "near": 2107,
      "prevent": 2108,
      "ched": 2109,
      "imported": 2110,
      "NotFound": 2111,
      "pdf": 2112,
      "eas": 2113,
      "step": 2114,
      "trace": 2115,
      "constant": 2116,
      "quotes": 2117,
      "altern": 2118,
      "partial": 2119,
      "odb": 2120,
      "special": 2121,
      "headers": 2122,
      "norm": 2123,
      "percent": 2124,
      "Parse": 2125,
      "give": 2126,
      "ater": 2127,
      "title": 2128,
      "lash": 2129,
      "repeated": 2130,
      "Where": 2131,
      "migr": 2132,
      "edi": 2133,
      "shared": 2134,
      "supported": 2135,
      "Vec": 2136,
      "initializ": 2137,
      "Calling": 2138,
      "location": 2139,
      "Auth": 2140,
      "modify": 2141,
      "follow": 2142,
      "timeout": 2143,
      "printing": 2144,
      "pixel": 2145,
      "cept": 2146,
      "filename": 2147,
      "always": 2148,
      "Delete": 2149,
      "ET": 2150,
      "fixt": 2151,
      "chan": 2152,
      "subclass": 2153,
      "cross": 2154,
      "ural": 2155,
      "licit": 2156,
      "aw": 2157,
      "atures": 2158,
      "assert": 2159,
      "tables": 2160,
      "settings": 2161,
      "take": 2162,
      "solve": 2163,
      "lected": 2164,
      "cel": 2165,
      "utes": 2166,
      "options": 2167,
      "arbitrary": 2168,
      "calls": 2169,
      "mutable": 2170,
      "Proper": 2171,
      "Comparing": 2172,
      "hape": 2173,
      "gres": 2174,
      "Integ": 2175,
      "scra": 2176,
      "processes": 2177,
      "itertools": 2178,
      "handling": 2179,
      "liter": 2180,
      "Enum": 2181,
      "If": 2182,
      "Save": 2183,
      "ba": 2184,
      "lation": 2185,
      "plain": 2186,
      "Match": 2187,
      "ential": 2188,
      "fastest": 2189,
      "pret": 2190,
      "short": 2191,
      "tory": 2192,
      "manage": 2193,
      "CI": 2194,
      "Temp": 2195,
      "dating": 2196,
      "along": 2197,
      "score": 2198,
      "Are": 2199,
      "Nested": 2200,
      "zy": 2201,
      "mac": 2202,
      "iterating": 2203,
      "ru": 2204,
      "uration": 2205,
      "normal": 2206,
      "PY": 2207,
      "tour": 2208,
      "etch": 2209,
      "sample": 2210,
      "passing": 2211,
      "Lam": 2212,
      "left": 2213,
      "usage": 2214,
      "compute": 2215,
      "ization": 2216,
      "entire": 2217,
      "Lamb": 2218,
      "good": 2219,
      "render": 2220,
      "recogn": 2221,
      "subset": 2222,
      "slicing": 2223,
      "gon": 2224,
      "remo": 2225,
      "Bin": 2226,
      "bot": 2227,
      "ird": 2228,
      "language": 2229,
      "Frames": 2230,
      "Ub": 2231,
      "separated": 2232,
      "Ubuntu": 2233,
      "amo": 2234,
      "uting": 2235,
      "indexes": 2236,
      "coder": 2237,
      "returned": 2238,
      "Write": 2239,
      "Seaborn": 2240,
      "threading": 2241,
      "catch": 2242,
      "classi": 2243,
      "would": 2244,
      "saving": 2245,
      "Number": 2246,
      "ift": 2247,
      "core": 2248,
      "chunks": 2249,
      "11": 2250,
      "templates": 2251,
      "Requests": 2252,
      "scale": 2253,
      "tar": 2254,
      "real": 2255,
      "axes": 2256,
      "raise": 2257,
      "RGB": 2258,
      "authenti": 2259,
      "ranges": 2260,
      "art": 2261,
      "cording": 2262,
      "engine": 2263,
      "takes": 2264,
      "ower": 2265,
      "external": 2266,
      "codeError": 2267,
      "Ren": 2268,
      "counts": 2269,
      "colors": 2270,
      "Runtime": 2271,
      "ier": 2272,
      "ars": 2273,
      "rece": 2274,
      "chron": 2275,
      "batch": 2276,
      "ordered": 2277,
      "Out": 2278,
      "subplots": 2279,
      "Vectori": 2280,
      "LL": 2281,
      "dump": 2282,
      "AML": 2283,
      "pect": 2284,
      "callback": 2285,
      "stdin": 2286,
      "ORM": 2287,
      "buf": 2288,
      "eries": 2289,
      "removing": 2290,
      "parser": 2291,
      "ites": 2292,
      "progress": 2293,
      "extend": 2294,
      "cache": 2295,
      "Cloud": 2296,
      "ster": 2297,
      "Charm": 2298,
      "PyCharm": 2299,
      "gh": 2300,
      "Printing": 2301,
      "status": 2302,
      "square": 2303,
      "generated": 2304,
      "Lambda": 2305,
      "got": 2306,
      "ries": 2307,
      "Lib": 2308,
      "agon": 2309,
      "signal": 2310,
      "having": 2311,
      "boto3": 2312,
      "counter": 2313,
      "begin": 2314,
      "clean": 2315,
      "according": 2316,
      "matches": 2317,
      "fying": 2318,
      "cture": 2319,
      "AP": 2320,
      "tract": 2321,
      "Assi": 2322,
      "witch": 2323,
      "win": 2324,
      "tions": 2325,
      "ify": 2326,
      "rage": 2327,
      "Anaconda": 2328,
      "tasks": 2329,
      "Max": 2330,
      "elegant": 2331,
      "callable": 2332,
      "Syn": 2333,
      "Two": 2334,
      "unic": 2335,
      "ial": 2336,
      "mary": 2337,
      "entries": 2338,
      "celery": 2339,
      "reduce": 2340,
      "YAML": 2341,
      "psycopg2": 2342,
      "VS": 2343,
      "jupyter": 2344,
      "usion": 2345,
      "bash": 2346,
      "Autom": 2347,
      "Base": 2348,
      "ik": 2349,
      "mix": 2350,
      "pygame": 2351,
      "notation": 2352,
      "continu": 2353,
      "Dist": 2354,
      "LI": 2355,
      "much": 2356,
      "Compare": 2357,
      "tical": 2358,
      "views": 2359,
      "Popen": 2360,
      "don": 2361,
      "aml": 2362,
      "ld": 2363,
      "lop": 2364,
      "Pygame": 2365,
      "Update": 2366,
      "exactly": 2367,
      "Which": 2368,
      "finite": 2369,
      "escape": 2370,
      "denti": 2371,
      "rices": 2372,
      "Man": 2373,
      "gment": 2374,
      "bro": 2375,
      "utf": 2376,
      "mpy": 2377,
      "scope": 2378,
      "RF": 2379,
      "indent": 2380,
      "plotly": 2381,
      "Process": 2382,
      "now": 2383,
      "curve": 2384,
      "ivy": 2385,
      "Iterating": 2386,
      "gu": 2387,
      "nth": 2388,
      "whites": 2389,
      "pyxl": 2390,
      "versions": 2391,
      "Program": 2392,
      "ens": 2393,
      "pivot": 2394,
      "cv2": 2395,
      "aggregate": 2396,
      "twi": 2397,
      "three": 2398,
      "toring": 2399,
      "bab": 2400,
      "digit": 2401,
      "Oper": 2402,
      "features": 2403,
      "illi": 2404,
      "Insert": 2405,
      "namespace": 2406,
      "sistent": 2407,
      "ality": 2408,
      "Importing": 2409,
      "Speed": 2410,
      "upper": 2411,
      "Determine": 2412,
      "stored": 2413,
      "GI": 2414,
      "vis": 2415,
      "cells": 2416,
      "circular": 2417,
      "Graph": 2418,
      "tic": 2419,
      "scrapy": 2420,
      "constra": 2421,
      "Sql": 2422,
      "WT": 2423,
      "idate": 2424,
      "Sk": 2425,
      "Multipro": 2426,
      "queue": 2427,
      "func": 2428,
      "strip": 2429,
      "ulative": 2430,
      "ators": 2431,
      "alphab": 2432,
      "16": 2433,
      "bucket": 2434,
      "Cont": 2435,
      "ived": 2436,
      "ion": 2437,
      "thod": 2438,
      "Method": 2439,
      "Case": 2440,
      "ian": 2441,
      "inv": 2442,
      "queryset": 2443,
      "proxy": 2444,
      "3d": 2445,
      "divi": 2446,
      "gning": 2447,
      "solute": 2448,
      "On": 2449,
      "thing": 2450,
      "chronous": 2451,
      "SV": 2452,
      "ics": 2453,
      "Invalid": 2454,
      "Thread": 2455,
      "UI": 2456,
      "asing": 2457,
      "pool": 2458,
      "will": 2459,
      "tem": 2460,
      "Replacing": 2461,
      "lint": 2462,
      "diagon": 2463,
      "reset": 2464,
      "practice": 2465,
      "Word": 2466,
      "fut": 2467,
      "vectors": 2468,
      "UTF": 2469,
      "utils": 2470,
      "OT": 2471,
      "Sph": 2472,
      "cook": 2473,
      "align": 2474,
      "etc": 2475,
      "threads": 2476,
      "foreign": 2477,
      "least": 2478,
      "urllib2": 2479,
      "Wor": 2480,
      "keh": 2481,
      "Pyspark": 2482,
      "ighted": 2483,
      "Speci": 2484,
      "whole": 2485,
      "nearest": 2486,
      "Mongo": 2487,
      "math": 2488,
      "ones": 2489,
      "tot": 2490,
      "From": 2491,
      "abstract": 2492,
      "cursor": 2493,
      "met": 2494,
      "ipython": 2495,
      "Comb": 2496,
      "fixed": 2497,
      "Retri": 2498,
      "Saving": 2499,
      "fetch": 2500,
      "matrices": 2501,
      "been": 2502,
      "0000": 2503,
      "Network": 2504,
      "Bet": 2505,
      "ane": 2506,
      "Recursive": 2507,
      "bad": 2508,
      "Concaten": 2509,
      "Combin": 2510,
      "compo": 2511,
      "ASCI": 2512,
      "Path": 2513,
      "ASCII": 2514,
      "enthes": 2515,
      "chrome": 2516,
      "Config": 2517,
      "job": 2518,
      "inner": 2519,
      "Scipy": 2520,
      "lookup": 2521,
      "eded": 2522,
      "ensi": 2523,
      "alo": 2524,
      "Could": 2525,
      "starting": 2526,
      "sche": 2527,
      "ines": 2528,
      "deep": 2529,
      "slash": 2530,
      "Label": 2531,
      "Sphinx": 2532,
      "Ru": 2533,
      "ything": 2534,
      "aming": 2535,
      "paths": 2536,
      "solution": 2537,
      "contour": 2538,
      "blems": 2539,
      "newline": 2540,
      "mbol": 2541,
      "Pick": 2542,
      "dle": 2543,
      "ampling": 2544,
      "mit": 2545,
      "precision": 2546,
      "Memory": 2547,
      "timedelta": 2548,
      "ases": 2549,
      "sw": 2550,
      "manager": 2551,
      "entry": 2552,
      "isn": 2553,
      "ody": 2554,
      "Differ": 2555,
      "choice": 2556,
      "gi": 2557,
      "selected": 2558,
      "plotting": 2559,
      "Copy": 2560,
      "feature": 2561,
      "metric": 2562,
      "rno": 2563,
      "blank": 2564,
      "aly": 2565,
      "loss": 2566,
      "ough": 2567,
      "directly": 2568,
      "Rel": 2569,
      "unknown": 2570,
      "mapping": 2571,
      "largest": 2572,
      "alk": 2573,
      "itself": 2574,
      "problem": 2575,
      "Ordered": 2576,
      "ierarch": 2577,
      "TH": 2578,
      "yaml": 2579,
      "dir": 2580,
      "Pri": 2581,
      "Show": 2582,
      "obtain": 2583,
      "delimiter": 2584,
      "turn": 2585,
      "area": 2586,
      "Ruby": 2587,
      "As": 2588,
      "tific": 2589,
      "scripts": 2590,
      "1D": 2591,
      "milli": 2592,
      "dient": 2593,
      "dete": 2594,
      "beh": 2595,
      "Transform": 2596,
      "control": 2597,
      "website": 2598,
      "longest": 2599,
      "deal": 2600,
      "interface": 2601,
      "runtime": 2602,
      "cated": 2603,
      "lish": 2604,
      "Unit": 2605,
      "enumer": 2606,
      "flatten": 2607,
      "rai": 2608,
      "Pydantic": 2609,
      "Values": 2610,
      "Draw": 2611,
      "fla": 2612,
      "ker": 2613,
      "absolute": 2614,
      "DA": 2615,
      "GPU": 2616,
      "nl": 2617,
      "leting": 2618,
      "serting": 2619,
      "Combine": 2620,
      "Cap": 2621,
      "Merging": 2622,
      "compati": 2623,
      "minutes": 2624,
      "including": 2625,
      "Row": 2626,
      "shuff": 2627,
      "heat": 2628,
      "Decimal": 2629,
      "audio": 2630,
      "container": 2631,
      "NoneType": 2632,
      "polygon": 2633,
      "pur": 2634,
      "AR": 2635,
      "Grid": 2636,
      "ither": 2637,
      "folders": 2638,
      "Scikit": 2639,
      "ticks": 2640,
      "Min": 2641,
      "Syntax": 2642,
      "cut": 2643,
      "shift": 2644,
      "nodes": 2645,
      "corout": 2646,
      "eval": 2647,
      "free": 2648,
      "keeping": 2649,
      "Bas": 2650,
      "Any": 2651,
      "dependent": 2652,
      "remote": 2653,
      "bracket": 2654,
      "amount": 2655,
      "Vis": 2656,
      "ush": 2657,
      "soup": 2658,
      "clear": 2659,
      "Auto": 2660,
      "rive": 2661,
      "greater": 2662,
      "forms": 2663,
      "filtering": 2664,
      "Perform": 2665,
      "SQLite": 2666,
      "throw": 2667,
      "mongo": 2668,
      "dataclass": 2669,
      "pache": 2670,
      "depth": 2671,
      "multiply": 2672,
      "AND": 2673,
      "configure": 2674,
      "dual": 2675,
      "correspon": 2676,
      "ssl": 2677,
      "cr": 2678,
      "irflow": 2679,
      "Selecting": 2680,
      "ie": 2681,
      "switch": 2682,
      "Errno": 2683,
      "accept": 2684,
      "alog": 2685,
      "uted": 2686,
      "parenthes": 2687,
      "giving": 2688,
      "asci": 2689,
      "Argument": 2690,
      "capture": 2691,
      "tail": 2692,
      "openpyxl": 2693,
      "Optim": 2694,
      "Fore": 2695,
      "info": 2696,
      "ctions": 2697,
      "quo": 2698,
      "Boolean": 2699,
      "Colab": 2700,
      "sequences": 2701,
      "Testing": 2702,
      "UTC": 2703,
      "IG": 2704,
      "ts": 2705,
      "ascii": 2706,
      "Tup": 2707,
      "stats": 2708,
      "Variable": 2709,
      "rate": 2710,
      "typing": 2711,
      "acti": 2712,
      "Logging": 2713,
      "Foreign": 2714,
      "zure": 2715,
      "showing": 2716,
      "logger": 2717,
      "positive": 2718,
      "channel": 2719,
      "ises": 2720,
      "Buil": 2721,
      "pytorch": 2722,
      "Decor": 2723,
      "odbc": 2724
    },
    "merges": [
      "i n",
      "o n",
      "t h",
      "e r",
      "a t",
      "a n",
      "t o",
      "in g",
      "e s",
      "o r",
      "e n",
      "y th",
      "yth on",
      "o w",
      "s t",
      "a r",
      "l e",
      "a l",
      "t i",
      "P ython",
      "r e",
      "a s",
      "H ow",
      "l i",
      "an d",
      "r o",
      "m e",
      "o f",
      "u m",
      "r a",
      "w i",
      "c o",
      "s e",
      "at e",
      "d e",
      "wi th",
      "th e",
      "en t",
      "u n",
      "t e",
      "f i",
      "ti on",
      "d i",
      "l o",
      "p ython",
      "g e",
      "c h",
      "c t",
      "u p",
      "u l",
      "s ing",
      "s i",
      "f or",
      "t er",
      "r i",
      "li st",
      "c e",
      "i s",
      "c tion",
      "u t",
      "m p",
      "ro m",
      "d o",
      "f rom",
      "v er",
      "at a",
      "a d",
      "v al",
      "at i",
      "c on",
      "p y",
      "a b",
      "and as",
      "c k",
      "v e",
      "st r",
      "i t",
      "al l",
      "e t",
      "e x",
      "m o",
      "u r",
      "p e",
      "n o",
      "m a",
      "u sing",
      "val u",
      "an g",
      "es t",
      "ati on",
      "e d",
      "li c",
      "str ing",
      "n um",
      "co l",
      "q u",
      "d ata",
      "w h",
      "m ent",
      "a y",
      "l y",
      "c i",
      "ra me",
      "r or",
      "l as",
      "k e",
      "ang o",
      "j ango",
      "un ction",
      "um n",
      "W h",
      "p ar",
      "fi le",
      "up lic",
      "ul ti",
      "d uplic",
      "t ing",
      "col umn",
      "f unction",
      "a me",
      "no t",
      "p ro",
      "ra y",
      "duplic ate",
      "in d",
      "c es",
      "c an",
      "e l",
      "o p",
      "ab le",
      "ge t",
      "ar ray",
      "p andas",
      "r es",
      "e ct",
      "m at",
      "m ulti",
      "o ut",
      "si on",
      "p a",
      "lo t",
      "ar y",
      "in e",
      "th er",
      "b y",
      "w or",
      "D jango",
      "j ect",
      "l es",
      "i f",
      "o b",
      "P andas",
      "w ay",
      "ar i",
      "f rame",
      "p o",
      "s er",
      "E r",
      "las s",
      "u se",
      "t a",
      "le ment",
      "t y",
      "Er ror",
      "p lot",
      "i l",
      "u b",
      "a p",
      "v i",
      "valu es",
      "R e",
      "te d",
      "in t",
      "w e",
      "ob ject",
      "h ow",
      "or t",
      "c lass",
      "ti me",
      "p le",
      "o l",
      "P y",
      "f er",
      "valu e",
      "b er",
      "i c",
      "on e",
      "se t",
      "num py",
      "d u",
      "l a",
      "di ction",
      "ch e",
      "d er",
      "b u",
      "r ow",
      "I n",
      "c re",
      "multi ple",
      "in to",
      "num ber",
      "li b",
      "p er",
      "o d",
      "in st",
      "x t",
      "u s",
      "w o",
      "ar g",
      "en d",
      "n e",
      "Wh at",
      "t ri",
      "f a",
      "wh en",
      "C on",
      "data frame",
      "a m",
      "do es",
      "wor k",
      "D ata",
      "b e",
      "co de",
      "e lement",
      "ver t",
      "d ate",
      "i mp",
      "re ad",
      "co mp",
      "t wo",
      "s c",
      "v ari",
      "b o",
      "co m",
      "di f",
      "s ub",
      "ke y",
      "l ine",
      "to r",
      "ar e",
      "s h",
      "at ing",
      "i g",
      "p ut",
      "b as",
      "at or",
      "p t",
      "en ce",
      "de x",
      "b et",
      "t r",
      "m y",
      "i z",
      "me th",
      "a c",
      "C o",
      "um ent",
      "I s",
      "du le",
      "n ame",
      "an ge",
      "d ing",
      "c or",
      "c ur",
      "i st",
      "dif fer",
      "t est",
      "we en",
      "Wh y",
      "ur n",
      "l ow",
      "bet ween",
      "s pe",
      "meth od",
      "i d",
      "ap p",
      "ces s",
      "th at",
      "en er",
      "de l",
      "s o",
      "er ror",
      "column s",
      "a ge",
      "mo dule",
      "g ra",
      "o ther",
      "in ter",
      "F rame",
      "te xt",
      "C h",
      "ul t",
      "c all",
      "ro up",
      "c al",
      "u re",
      "f ind",
      "for m",
      "cre ate",
      "re t",
      "s or",
      "list s",
      "ta in",
      "in dex",
      "with out",
      "i le",
      "N um",
      "G et",
      "er s",
      "i ma",
      "i p",
      "arg ument",
      "re qu",
      "a ct",
      "y n",
      "an ce",
      "ri pt",
      "el d",
      "a ve",
      "o ver",
      "s p",
      "i te",
      "r un",
      "ex t",
      "i ter",
      "ret urn",
      "che ck",
      "spe ci",
      "ch ar",
      "m in",
      "lo op",
      "lo ad",
      "c tor",
      "di ct",
      "Data Frame",
      "mo ve",
      "fi les",
      "plot lib",
      "a v",
      "m es",
      "ther e",
      "ty pe",
      "bu te",
      "u e",
      "b ut",
      "p la",
      "c lo",
      "a g",
      "D e",
      "n ing",
      "tri bute",
      "b le",
      "g roup",
      "Q L",
      "un t",
      "to m",
      "con vert",
      "fi c",
      "un d",
      "a u",
      "vari able",
      "o t",
      "se d",
      "com m",
      "l l",
      "wor d",
      "las k",
      "ad d",
      "g ener",
      "i v",
      "p r",
      "S QL",
      "en sion",
      "row s",
      "p re",
      "element s",
      "mo del",
      "d jango",
      "di re",
      "C an",
      "F ind",
      "an y",
      "p res",
      "lo g",
      "h as",
      "ima ge",
      "o k",
      "a ch",
      "li t",
      "a f",
      "c ul",
      "sc ript",
      "en sor",
      "U sing",
      "U n",
      "o m",
      "g n",
      "string s",
      "e qu",
      "ex ce",
      "ma ke",
      "l in",
      "p h",
      "i m",
      "e c",
      "a ck",
      "an other",
      "i r",
      "ne w",
      "E x",
      "imp ort",
      "f fi",
      "a st",
      "on g",
      "bas ed",
      "h t",
      "te g",
      "p tion",
      "o u",
      "t up",
      "ite m",
      "char act",
      "at es",
      "er y",
      "ind ow",
      "ra ct",
      "ab les",
      "ffi ci",
      "es ted",
      "s ame",
      "pa ck",
      "ate d",
      "l en",
      "inst all",
      "differ ent",
      "pr int",
      "b in",
      "P I",
      "pla ce",
      "ation s",
      "gra m",
      "w ri",
      "ffici ent",
      "m or",
      "M o",
      "si de",
      "for mat",
      "l ay",
      "out put",
      "fi eld",
      "o o",
      "on ly",
      "in teg",
      "di tion",
      "p as",
      "ow n",
      "en ti",
      "C re",
      "F lask",
      "at tribute",
      "ri x",
      "speci fic",
      "par se",
      "e ach",
      "O N",
      "all y",
      "h e",
      "and om",
      "i es",
      "pro cess",
      "A l",
      "f in",
      "un i",
      "s si",
      "or der",
      "al iz",
      "che my",
      "A d",
      "c l",
      "Con vert",
      "c s",
      "cur r",
      "us tom",
      "n ested",
      "number s",
      "con tain",
      "a mp",
      "af ter",
      "op en",
      "z e",
      "fi r",
      "argument s",
      "I mp",
      "g iv",
      "clo sed",
      "requ est",
      "wh ile",
      "ma p",
      "date time",
      "fir st",
      "comm and",
      "f low",
      "ctor y",
      "ces sing",
      "si gn",
      "u g",
      "J S",
      "fa ult",
      "N o",
      "re move",
      "y pe",
      "s y",
      "d a",
      "an s",
      "ex ist",
      "vari ables",
      "mat rix",
      "s um",
      "ch ange",
      "ame ter",
      "y ou",
      "th an",
      "O p",
      "b ack",
      "m b",
      "v s",
      "co unt",
      "pa th",
      "ver sion",
      "in put",
      "JS ON",
      "ssi ble",
      "po int",
      "Num py",
      "M at",
      "re e",
      "T ype",
      "par ameter",
      "r andom",
      "p i",
      "ti ve",
      "re g",
      "con dition",
      "mat ch",
      "M ulti",
      "P ro",
      "a x",
      "ari es",
      "i um",
      "e w",
      "e p",
      "po ssible",
      "f lo",
      "L o",
      "it s",
      "ar ch",
      "ati ve",
      "dire ctory",
      "function s",
      "0 0",
      "f ul",
      "M L",
      "as e",
      "g ing",
      "op er",
      "de fault",
      "ex ec",
      "S e",
      "v ing",
      "u te",
      "n on",
      "th is",
      "le ar",
      "sing le",
      "st ate",
      "le ct",
      "with in",
      "res ult",
      "o und",
      "h ave",
      "D o",
      "exce ption",
      "qu e",
      "L ist",
      "pas s",
      "p p",
      "ul d",
      "u ser",
      "F or",
      "vi r",
      "e mp",
      "c ustom",
      "array s",
      "sp lit",
      "fi g",
      "ar d",
      "i val",
      "object s",
      "am es",
      "e ck",
      "par k",
      "T ensor",
      "er e",
      "bas e",
      "wri te",
      "in side",
      "str u",
      "col or",
      "Op en",
      "l ab",
      "ival ent",
      "Ch eck",
      "r ange",
      "cs v",
      "pro per",
      "s up",
      "ter n",
      "lin es",
      "ig n",
      "c y",
      "c ted",
      "t able",
      "t ra",
      "le d",
      "fi l",
      "key s",
      "q l",
      "Al chemy",
      "te mp",
      "indow s",
      "i ch",
      "g le",
      "Num Py",
      "o us",
      "ro ug",
      "ma x",
      "roug h",
      "flo at",
      "A PI",
      "giv en",
      "as k",
      "m l",
      "P ar",
      "th rough",
      "r ary",
      "H T",
      "di st",
      "n ames",
      "cl u",
      "l ate",
      "e fficient",
      "li ke",
      "s to",
      "s ci",
      "ver y",
      "state ment",
      "si ze",
      "cal cul",
      "con t",
      "am ic",
      "yn amic",
      "O S",
      "oo gle",
      "l ing",
      "F ast",
      "V al",
      "re l",
      "D i",
      "p ip",
      "re place",
      "item s",
      "er as",
      "C S",
      "Co mp",
      "fil ter",
      "de fin",
      "m is",
      "tup le",
      "de d",
      "c er",
      "le te",
      "ver ting",
      "s s",
      "an t",
      "S er",
      "s on",
      "m al",
      "at ch",
      "g th",
      "emp ty",
      "S tr",
      "qu ery",
      "integ er",
      "f ol",
      "c a",
      "pro gram",
      "E n",
      "T r",
      "re ct",
      "la st",
      "de cor",
      "u al",
      "P o",
      "ge x",
      "mor y",
      "ur l",
      "pres sion",
      "di m",
      "inst ance",
      "bu il",
      "po si",
      "lear n",
      "name d",
      "Re ad",
      "a k",
      "fa st",
      "s ave",
      "wh ich",
      "S et",
      "p ort",
      "c li",
      "bo ok",
      "val id",
      "k inter",
      "g or",
      "st ar",
      "curr ent",
      "A pp",
      "gener ator",
      "stru ct",
      "de p",
      "Get ting",
      "it y",
      "F i",
      "d es",
      "we b",
      "Cre ate",
      "re h",
      "S el",
      "b ar",
      "l ar",
      "p on",
      "s pa",
      "d own",
      "reh ension",
      "u st",
      "o c",
      "len gth",
      "C V",
      "ac cess",
      "ti m",
      "imp lement",
      "h o",
      "g es",
      "do c",
      "dim ension",
      "Sel en",
      "Selen ium",
      "pack age",
      "class es",
      "p es",
      "call y",
      "fer ence",
      "h and",
      "e m",
      "does n",
      "G ener",
      "y ing",
      "gra ph",
      "tr ans",
      "uni que",
      "i th",
      "s u",
      "iz e",
      "av a",
      "Imp ort",
      "z er",
      "lab el",
      "v ent",
      "Type Error",
      "ser t",
      "S p",
      "en ces",
      "s k",
      "to ri",
      "tup les",
      "e ad",
      "ra mes",
      "N one",
      "st and",
      "run ning",
      "R un",
      "lar ge",
      "cer tain",
      "th read",
      "s ql",
      "re d",
      "s ort",
      "S c",
      "decor ator",
      "con d",
      "C ol",
      "en v",
      "e very",
      "t ensor",
      "o s",
      "CS V",
      "P lot",
      "word s",
      "d ay",
      "m on",
      "Find ing",
      "m an",
      "ck et",
      "in di",
      "for e",
      "er ge",
      "s how",
      "A n",
      "work ing",
      "ra w",
      "ag es",
      "te book",
      "di sp",
      "so me",
      "se qu",
      "ser ver",
      "Re move",
      "me mory",
      "j son",
      "lic ation",
      "si ve",
      "l at",
      "end ing",
      "wh ere",
      "W indows",
      "E xt",
      "ax is",
      "un it",
      "lo ck",
      "group by",
      "le an",
      "as sign",
      "b it",
      "A r",
      "res s",
      "le t",
      "use d",
      "vi ew",
      "Ex ce",
      "or ting",
      "l ong",
      "ext ract",
      "A t",
      "Str ing",
      "se par",
      "as yn",
      "G oogle",
      "S t",
      "or e",
      "charact er",
      "d ynamic",
      "Sp lit",
      "m any",
      "op tion",
      "mor e",
      "se cond",
      "disp lay",
      "U R",
      "lo b",
      "r y",
      "or d",
      "he ad",
      "Open CV",
      "h er",
      "amp le",
      "N a",
      "Val ue",
      "te ct",
      "mes s",
      "re gex",
      "me an",
      "ul ar",
      "request s",
      "lib rary",
      "ati c",
      "fi x",
      "inst ead",
      "si m",
      "en cy",
      "B e",
      "i ve",
      "pa ir",
      "K e",
      "gener ate",
      "S o",
      "le g",
      "per form",
      "wh at",
      "par ti",
      "c at",
      "lo cal",
      "bin ary",
      "method s",
      "im um",
      "up y",
      "se lect",
      "requ i",
      "wi d",
      "A c",
      "K eras",
      "pro du",
      "upy ter",
      "t es",
      "S T",
      "p ing",
      "d f",
      "c u",
      "fol der",
      "UR L",
      "in it",
      "co py",
      "or n",
      "mo d",
      "to ol",
      "i ti",
      "si mp",
      "2 D",
      "T P",
      "ver se",
      "Cre ating",
      "se arch",
      "mo ving",
      "pa ge",
      "S park",
      "ve l",
      "i aliz",
      "app ly",
      "o in",
      "ser ies",
      "li m",
      "ic al",
      "posi tion",
      "ci mal",
      "ul es",
      "u tion",
      "Data frame",
      "ur es",
      "ri ver",
      "tri but",
      "re cur",
      "tribut es",
      "ma in",
      "ter m",
      "lo c",
      "D F",
      "At tribute",
      "Na N",
      "vir on",
      "ati cally",
      "au ti",
      "cor rect",
      "calcul ate",
      "E fficient",
      "up date",
      "Un i",
      "point s",
      "auti ful",
      "result s",
      "h a",
      "temp late",
      "res pon",
      "defin ed",
      "ri d",
      "can not",
      "ig h",
      "Ad d",
      "ma il",
      "In dex",
      "vi a",
      "av ing",
      "multi pro",
      "n et",
      "t ual",
      "di s",
      "log ging",
      "w indow",
      "m ut",
      "ti mes",
      "W e",
      "f rames",
      "R et",
      "se l",
      "com bin",
      "f y",
      "U se",
      "contain s",
      "ta g",
      "Ext ract",
      "viron ment",
      "s ol",
      "ar ning",
      "c v",
      "le vel",
      "arg parse",
      "s low",
      "ile d",
      "G roup",
      "sel f",
      "pe cted",
      "A u",
      "P r",
      "z ip",
      "ti l",
      "set up",
      "c ase",
      "I ter",
      "F il",
      "f lask",
      "D if",
      "k n",
      "data base",
      "wi se",
      "oper ator",
      "equ al",
      "fa il",
      "f f",
      "Q t",
      "P as",
      "exist s",
      "k it",
      "Python ic",
      "re pe",
      "mis sing",
      "mo st",
      "sci py",
      "In st",
      "N ot",
      "Ke y",
      "integ ers",
      "s yn",
      "ro ss",
      "la mb",
      "p ri",
      "b lock",
      "term ine",
      "ke ep",
      "el l",
      "ad min",
      "st em",
      "Do es",
      "py test",
      "f ound",
      "co ding",
      "Fi eld",
      "star t",
      "field s",
      "I ma",
      "M y",
      "g lob",
      "con ne",
      "b est",
      "ty pes",
      "c ing",
      "load ing",
      "vir tual",
      "g ht",
      "t on",
      "indi ces",
      "HT ML",
      "cont ent",
      "T kinter",
      "at tern",
      "ce ll",
      "cat en",
      "P er",
      "let ter",
      "Mo del",
      "tool s",
      "1 0",
      "mod ules",
      "o ur",
      "v en",
      "dep end",
      "O R",
      "D is",
      "par t",
      "m erge",
      "mon th",
      "U p",
      "x ml",
      "ex pected",
      "e ar",
      "at as",
      "be fore",
      "ro p",
      "Be autiful",
      "M e",
      "R es",
      "comp ar",
      "s park",
      "c ate",
      "ig ht",
      "t ask",
      "bu g",
      "ima ges",
      "oc curr",
      "un der",
      "W ri",
      "c ent",
      "Q u",
      "pres ent",
      "iter ate",
      "ro und",
      "6 4",
      "j oin",
      "ang ing",
      "C al",
      "d b",
      "dire ct",
      "fig ure",
      "par ent",
      "c tori",
      "s es",
      "a ke",
      "ck er",
      "tr y",
      "lamb da",
      "wh e",
      "t p",
      "simp le",
      "ar k",
      "vi de",
      "on t",
      "d ates",
      "J upyter",
      "di g",
      "de cimal",
      "in iti",
      "to p",
      "sequ ence",
      "HT TP",
      "bo o",
      "T i",
      "exist ing",
      "il ar",
      "s end",
      "F ile",
      "wh y",
      "zer o",
      "as h",
      "rel ation",
      "de lete",
      "ex p",
      "in ting",
      "st atic",
      "p attern",
      "her it",
      "o uld",
      "ub le",
      "atas et",
      "r est",
      "ur ing",
      "ter min",
      "s li",
      "gor ith",
      "or ted",
      "gorith m",
      "ve ctor",
      "Ad ding",
      "So up",
      "F unction",
      "plot s",
      "au to",
      "set ting",
      "mess age",
      "Ima ge",
      "S ci",
      "return s",
      "S S",
      "sh ould",
      "get ting",
      "Cal cul",
      "bo x",
      "ab orn",
      "fi t",
      "n ect",
      "il d",
      "cul ar",
      "doc ument",
      "ro me",
      "ser ializ",
      "Py Qt",
      "no tebook",
      "test s",
      "struct ure",
      "ang es",
      "T he",
      "uni code",
      "aliz e",
      "W S",
      "g ine",
      "g er",
      "ment s",
      "Multi ple",
      "in clu",
      "an ti",
      "lin k",
      "S ub",
      "model s",
      "Inst all",
      "ta x",
      "ra py",
      "con da",
      "in u",
      "C lass",
      "re am",
      "read ing",
      "PI L",
      "Ti me",
      "a in",
      "t en",
      "sim ilar",
      "b re",
      "V i",
      "R E",
      "We b",
      "ht ml",
      "Co unt",
      "ord in",
      "f e",
      "app end",
      "au th",
      "Ser ies",
      "spa ce",
      "n or",
      "se cu",
      "In ter",
      "k en",
      "ver age",
      "o i",
      "g in",
      "Ch ange",
      "al chemy",
      "arg s",
      "fi ed",
      "sy stem",
      "tra in",
      "S h",
      "glob al",
      "J ava",
      "mo ck",
      "fi ll",
      "Re qu",
      "cre ating",
      "B o",
      "ul l",
      "s m",
      "fast er",
      "the m",
      "buil t",
      "est amp",
      "i ck",
      "A T",
      "f ine",
      "Co de",
      "ro ll",
      "n p",
      "in cre",
      "wid get",
      "de tect",
      "Re place",
      "Tr ue",
      "ti es",
      "C all",
      "o id",
      "r en",
      "proper ty",
      "E R",
      "a it",
      "B est",
      "Frame work",
      "i se",
      "python ic",
      "m s",
      "m i",
      "iter ator",
      "O b",
      "ra p",
      "g ame",
      "T est",
      "I D",
      "Col umn",
      "My SQL",
      "Co m",
      "T h",
      "e ve",
      "by tes",
      "g o",
      "U T",
      "g re",
      "Se lect",
      "X ML",
      "secu tive",
      "R est",
      "match ing",
      "T o",
      "t ree",
      "recur sive",
      "le x",
      "F low",
      "ad ding",
      "pack ages",
      "sup er",
      "al led",
      "num er",
      "whe ther",
      "sk learn",
      "E lement",
      "st y",
      "e ven",
      "set s",
      "k ing",
      "pi ck",
      "label s",
      "frame work",
      "Ret urn",
      "con st",
      "sh ell",
      "comm on",
      "ar ing",
      "Fil ter",
      "Uni code",
      "ci o",
      "key word",
      "se len",
      "selen ium",
      "tor ch",
      "c ap",
      "in sert",
      "exec ute",
      "hand le",
      "m ark",
      "reg ular",
      "x l",
      "all ow",
      "respon se",
      "re ference",
      "Exce ption",
      "d en",
      "de termine",
      "con text",
      "net work",
      "cal led",
      "inst alled",
      "pair s",
      "ha vi",
      "pro ject",
      "has h",
      "le ction",
      "a pe",
      "m ust",
      "e mail",
      "con caten",
      "Di ction",
      "in herit",
      "S pe",
      "Requ est",
      "Ar ray",
      "p lay",
      "al s",
      "f requ",
      "in j",
      "d river",
      "t le",
      "lo ok",
      "multi p",
      "we e",
      "n ext",
      "au tom",
      "D B",
      "Re moving",
      "e vent",
      "pa ce",
      "Read ing",
      "T ext",
      "M ac",
      "D ate",
      "sli ce",
      "S imp",
      "T K",
      "th en",
      "max imum",
      "cli ent",
      "vi ce",
      "al se",
      "re f",
      "comp are",
      "2 d",
      "sci kit",
      "I N",
      "by te",
      "but ton",
      "id enti",
      "proper ly",
      "separ ate",
      "di o",
      "con nect",
      "co un",
      "t xt",
      "co ordin",
      "A WS",
      "d ataset",
      "ak ing",
      "Pr int",
      "O r",
      "fa iled",
      "buil d",
      "re verse",
      "con fig",
      "asyn cio",
      "j ust",
      "po st",
      "g reg",
      "u d",
      "be havi",
      "produ ct",
      "inj a",
      "3 D",
      "de bug",
      "is on",
      "dist ance",
      "do ut",
      "exce pt",
      "t kinter",
      "en coding",
      "st at",
      "Qu ery",
      "bo th",
      "al le",
      "Re g",
      "tim estamp",
      "res sion",
      "T ree",
      "ur ce",
      "fa ce",
      "al gorithm",
      "i de",
      "me m",
      "en um",
      "P DF",
      "w ait",
      "ext ension",
      "unit test",
      "M ake",
      "si te",
      "Gener ate",
      "second s",
      "vi ous",
      "iter able",
      "loop s",
      "ti ck",
      "down load",
      "Can not",
      "ch ild",
      "boo lean",
      "ri bu",
      "cor d",
      "add ress",
      "Lo g",
      "cate gor",
      "ri p",
      "Wh en",
      "w as",
      "be ing",
      "group s",
      "g rid",
      "n er",
      "sup port",
      "w indows",
      "st dout",
      "ri ght",
      "Co un",
      "I P",
      "ri de",
      "sor ted",
      "exec ut",
      "Un able",
      "sty le",
      "url lib",
      "T or",
      "i eld",
      "Vi ew",
      "ar ed",
      "G B",
      "Run ning",
      "ses sion",
      "las si",
      "trans form",
      "at ure",
      "way s",
      "sto re",
      "n d",
      "on ce",
      "an ces",
      "ex ample",
      "so le",
      "Pas sing",
      "Di ct",
      "3 2",
      "ci r",
      "sm all",
      "P OS",
      "c ation",
      "sto p",
      "ra c",
      "par sing",
      "av oid",
      "d rop",
      "spe ed",
      "Fast est",
      "es s",
      "Py Spark",
      "sh ape",
      "so cket",
      "S ort",
      "sy s",
      "so urce",
      "h is",
      "m ing",
      "C ustom",
      "l er",
      "pre vious",
      "do uble",
      "d um",
      "r ong",
      "el se",
      "Exce l",
      "stand ing",
      "fail s",
      "S um",
      "python 3",
      "cli ck",
      "an not",
      "st ream",
      "app ing",
      "il able",
      "t k",
      "at ter",
      "Ob ject",
      "d uring",
      "leg ant",
      "ht tp",
      "bo und",
      "t f",
      "z one",
      "me ta",
      "ne ed",
      "For mat",
      "Se arch",
      "i o",
      "s ue",
      "p l",
      "re present",
      "al ph",
      "mem ber",
      "ong o",
      "n el",
      "y ield",
      "C lo",
      "les s",
      "of f",
      "st ack",
      "Ch ar",
      "requi red",
      "Tor ch",
      "S 3",
      "ol d",
      "leg end",
      "to ken",
      "con sole",
      "ext ra",
      "do t",
      "Set ting",
      "head er",
      "dif y",
      "de fine",
      "wri ting",
      "mb ed",
      "C ython",
      "stand ard",
      "Python 3",
      "N L",
      "r on",
      "y ear",
      "as c",
      "read y",
      "ava ilable",
      "a verage",
      "option al",
      "letter s",
      "O ne",
      "g round",
      "SS L",
      "A S",
      "s lic",
      "ex clu",
      "tr ying",
      "lim it",
      "Fast API",
      "syn tax",
      "work s",
      "wh o",
      "sub string",
      "w arning",
      "return ing",
      "No tebook",
      "re tri",
      "Sc ript",
      "I Python",
      "s parse",
      "a ded",
      "error s",
      "an k",
      "se ction",
      "mo de",
      "dig its",
      "l ang",
      "w rap",
      "en code",
      "over l",
      "P re",
      "g ative",
      "de cl",
      "i tion",
      "or ig",
      "Simp le",
      "orig in",
      "Py Torch",
      "D ynamic",
      "li te",
      "Tr ans",
      "ribu tion",
      "N ame",
      "call ing",
      "po ly",
      "U ser",
      "k eras",
      "pass word",
      "su ch",
      "con f",
      "st d",
      "bo to",
      "w rong",
      "ci sion",
      "Ad min",
      "ver al",
      "kn own",
      "p g",
      "sh ip",
      "com b",
      "POS T",
      "F alse",
      "bre ak",
      "y pes",
      "pp ing",
      "Or der",
      "oper ation",
      "F a",
      "m ask",
      "Sc rapy",
      "n ull",
      "mis sion",
      "to gram",
      "find ing",
      "char t",
      "B u",
      "i li",
      "A N",
      "R andom",
      "Par sing",
      "c ry",
      "d raw",
      "speci fy",
      "ag greg",
      "ver s",
      "row ser",
      "ac ross",
      "g oogle",
      "se veral",
      "al ready",
      "po se",
      "bo ard",
      "exce l",
      "H and",
      "s qu",
      "us es",
      "op tim",
      "ac tive",
      "sh e",
      "unt u",
      "h ex",
      "the ir",
      "b ig",
      "se aborn",
      "Mo dule",
      "p op",
      "test ing",
      "m id",
      "s ent",
      "un pack",
      "open cv",
      "Po st",
      "kn ow",
      "s q",
      "si st",
      "u til",
      "Un der",
      "asc ript",
      "il l",
      "comb ine",
      "un k",
      "av ascript",
      "O ver",
      "create d",
      "fic ation",
      "ro t",
      "pe d",
      "slow er",
      "pick le",
      "par alle",
      "1 2",
      "comp lex",
      "NL TK",
      "u ff",
      "e valu",
      "Ac cessing",
      "meth ing",
      "af e",
      "lat ten",
      "B y",
      "F ound",
      "over ride",
      "des c",
      "clo se",
      "Plot ly",
      "ex it",
      "En gine",
      "pla cing",
      "ful l",
      "C el",
      "l xml",
      "W arning",
      "a le",
      "tag s",
      "f t",
      "Cel ery",
      "ro ot",
      "asyn c",
      "sup p",
      "fi len",
      "dict s",
      "Imp lement",
      "un til",
      "inst ances",
      "inter val",
      "App ly",
      "up load",
      "sc atter",
      "lang u",
      "th es",
      "Calcul ate",
      "L E",
      "int s",
      "ag er",
      "De tect",
      "ign ore",
      "L ine",
      "so mething",
      "spa ces",
      "1 00",
      "W ith",
      "u ally",
      "ch ain",
      "RE ST",
      "Wri ting",
      "n a",
      "cre en",
      "pres s",
      "Ch rome",
      "ar bit",
      "ex act",
      "to o",
      "ge ther",
      "origin al",
      "P a",
      "form ation",
      "ci es",
      "h igh",
      "ch oi",
      "G ra",
      "wid th",
      "speci fied",
      "py spark",
      "ig r",
      "Ser ver",
      "a conda",
      "b l",
      "she et",
      "b rowser",
      "requi re",
      "vide o",
      "wee k",
      "k es",
      "N e",
      "v ate",
      "h el",
      "import s",
      "Ac cess",
      "to gether",
      "line ar",
      "correct ly",
      "ho ur",
      "c ast",
      "S y",
      "inu x",
      "qu ot",
      "Lo ad",
      "numer ic",
      "frequ ency",
      "L inux",
      "l arg",
      "float s",
      "L i",
      "N et",
      "ne gative",
      "Ex ec",
      "M any",
      "roll ing",
      "k w",
      "ul ate",
      "me di",
      "ar ound",
      "w ard",
      "per mut",
      "g ress",
      "the y",
      "sc al",
      "nd array",
      "en cies",
      "ang le",
      "pi pe",
      "retri eve",
      "pro x",
      "P i",
      "P U",
      "a ction",
      "Lo op",
      "i ted",
      "ch unk",
      "un c",
      "b ind",
      "in x",
      "wi t",
      "rel ated",
      "p atch",
      "pression s",
      "his togram",
      "T able",
      "co gn",
      "iz ed",
      "at tr",
      "com ma",
      "Check ing",
      "rac ti",
      "M erge",
      "re cord",
      "imp orting",
      "n an",
      "Mo st",
      "ch anges",
      "ble m",
      "dis able",
      "oc cur",
      "4 0",
      "st ract",
      "anti c",
      "D river",
      "command s",
      "comp lete",
      "time zone",
      "For m",
      "d antic",
      "Ar g",
      "un ding",
      "b ra",
      "f o",
      "fi er",
      "iter ation",
      "de lim",
      "index ing",
      "exec ution",
      "il ing",
      "Ch anging",
      "l ates",
      "is sue",
      "giv es",
      "recur sion",
      "c um",
      "bet ter",
      "pas sed",
      "x el",
      "is h",
      "Dis play",
      "content s",
      "ho st",
      "ro l",
      "behavi or",
      "z ed",
      "Po ol",
      "Plot ting",
      "tern al",
      "inclu de",
      "s co",
      "s afe",
      "low er",
      "M aking",
      "d type",
      "t ab",
      "in s",
      "re du",
      "kw args",
      "out side",
      "Iter ate",
      "se e",
      "c le",
      "log in",
      "termin al",
      "ap i",
      "my sql",
      "s creen",
      "J inja",
      "v es",
      "con stru",
      "Re cur",
      "inter pre",
      "iv ot",
      "zer os",
      "ili ty",
      "lo aded",
      "incre ment",
      "B oo",
      "V ari",
      "ab out",
      "train ing",
      "te ll",
      "ap pe",
      "Do cker",
      "D own",
      "ct ypes",
      "no de",
      "Mo ck",
      "check ing",
      "C li",
      "do cker",
      "ctori es",
      "I O",
      "S orting",
      "re direct",
      "for ce",
      "min imum",
      "Split ting",
      "u ch",
      "co pg",
      "Re gex",
      "sy copg",
      "L ab",
      "E qu",
      "p racti",
      "de code",
      "Mat rix",
      "co uld",
      "re fer",
      "rel ative",
      "I F",
      "P E",
      "S to",
      "t ure",
      "u es",
      "clo s",
      "C or",
      "si ble",
      "L e",
      "pre fix",
      "2 0",
      "sor ting",
      "Pas s",
      "lay er",
      "T ra",
      "inter po",
      "day s",
      "or ing",
      "sq lite",
      "we ight",
      "iz ing",
      "er ging",
      "es ca",
      "res h",
      "res ol",
      "e mbed",
      "me tri",
      "ve ctori",
      "sk ip",
      "sycopg 2",
      "m atically",
      "in valid",
      "pres er",
      "hel p",
      "ch anging",
      "mess ages",
      "paralle l",
      "f ont",
      "del ta",
      "Coun ting",
      "dition al",
      "ne ar",
      "pre vent",
      "ch ed",
      "imp orted",
      "Not Found",
      "p df",
      "e as",
      "st ep",
      "tra ce",
      "const ant",
      "quot es",
      "al tern",
      "parti al",
      "od b",
      "speci al",
      "head ers",
      "nor m",
      "per cent",
      "Par se",
      "g ive",
      "at er",
      "ti tle",
      "las h",
      "repe ated",
      "Wh ere",
      "m igr",
      "e di",
      "sh ared",
      "supp orted",
      "V ec",
      "initi aliz",
      "Call ing",
      "loc ation",
      "Au th",
      "mo dify",
      "fol low",
      "time out",
      "pr inting",
      "pi xel",
      "ce pt",
      "filen ame",
      "al ways",
      "De lete",
      "E T",
      "fi xt",
      "ch an",
      "sub class",
      "c ross",
      "ur al",
      "lic it",
      "a w",
      "at ures",
      "as sert",
      "t ables",
      "setting s",
      "ta ke",
      "sol ve",
      "le cted",
      "ce l",
      "ut es",
      "option s",
      "arbit rary",
      "call s",
      "mut able",
      "Pro per",
      "Comp aring",
      "ha pe",
      "g res",
      "In teg",
      "sc ra",
      "process es",
      "iter tools",
      "hand ling",
      "li ter",
      "E num",
      "I f",
      "S ave",
      "b a",
      "l ation",
      "pla in",
      "Mat ch",
      "enti al",
      "fast est",
      "p ret",
      "sh ort",
      "tor y",
      "man age",
      "C I",
      "T emp",
      "d ating",
      "al ong",
      "sc ore",
      "A re",
      "N ested",
      "z y",
      "ma c",
      "iter ating",
      "r u",
      "ur ation",
      "nor mal",
      "P Y",
      "to ur",
      "et ch",
      "s ample",
      "pas sing",
      "L am",
      "le ft",
      "us age",
      "comp ute",
      "iz ation",
      "enti re",
      "Lam b",
      "go od",
      "ren der",
      "re cogn",
      "sub set",
      "slic ing",
      "g on",
      "re mo",
      "B in",
      "bo t",
      "ir d",
      "langu age",
      "F rames",
      "U b",
      "separ ated",
      "Ub untu",
      "a mo",
      "ut ing",
      "index es",
      "co der",
      "return ed",
      "Wri te",
      "Se aborn",
      "thread ing",
      "c atch",
      "c lassi",
      "wo uld",
      "s aving",
      "Num ber",
      "if t",
      "cor e",
      "chunk s",
      "1 1",
      "temp lates",
      "Request s",
      "sc ale",
      "t ar",
      "re al",
      "ax es",
      "ra ise",
      "R GB",
      "auth enti",
      "r anges",
      "ar t",
      "cor ding",
      "en gine",
      "ta kes",
      "ow er",
      "ex ternal",
      "code Error",
      "R en",
      "count s",
      "color s",
      "Run time",
      "i er",
      "ar s",
      "re ce",
      "ch ron",
      "b atch",
      "order ed",
      "O ut",
      "sub plots",
      "Vec tori",
      "L L",
      "dum p",
      "A ML",
      "pe ct",
      "call back",
      "std in",
      "OR M",
      "bu f",
      "er ies",
      "re moving",
      "par ser",
      "it es",
      "pro gress",
      "ext end",
      "ca che",
      "Clo ud",
      "st er",
      "Char m",
      "Py Charm",
      "g h",
      "Pr inting",
      "stat us",
      "squ are",
      "gener ated",
      "Lamb da",
      "g ot",
      "ri es",
      "Li b",
      "ag on",
      "sign al",
      "h aving",
      "boto 3",
      "coun ter",
      "be gin",
      "c lean",
      "ac cording",
      "match es",
      "f ying",
      "ct ure",
      "A P",
      "t ract",
      "A ssi",
      "wit ch",
      "w in",
      "tion s",
      "if y",
      "ra ge",
      "An aconda",
      "task s",
      "M ax",
      "e legant",
      "call able",
      "S yn",
      "T wo",
      "un ic",
      "i al",
      "m ary",
      "ent ries",
      "cel ery",
      "redu ce",
      "Y AML",
      "p sycopg2",
      "V S",
      "j upyter",
      "u sion",
      "bas h",
      "Au tom",
      "B ase",
      "i k",
      "mi x",
      "py game",
      "not ation",
      "cont inu",
      "D ist",
      "L I",
      "m uch",
      "Comp are",
      "ti cal",
      "view s",
      "P open",
      "d on",
      "am l",
      "l d",
      "lo p",
      "Py game",
      "Up date",
      "exact ly",
      "Wh ich",
      "fin ite",
      "esca pe",
      "d enti",
      "ri ces",
      "M an",
      "g ment",
      "b ro",
      "ut f",
      "mp y",
      "sco pe",
      "R F",
      "ind ent",
      "plot ly",
      "Pro cess",
      "n ow",
      "cur ve",
      "iv y",
      "Iter ating",
      "g u",
      "n th",
      "wh ites",
      "py xl",
      "version s",
      "Pro gram",
      "en s",
      "p ivot",
      "cv 2",
      "aggreg ate",
      "t wi",
      "th ree",
      "tor ing",
      "b ab",
      "dig it",
      "O per",
      "fe atures",
      "il li",
      "In sert",
      "names pace",
      "sist ent",
      "al ity",
      "Imp orting",
      "Spe ed",
      "up per",
      "De termine",
      "sto red",
      "G I",
      "v is",
      "cell s",
      "cir cular",
      "Gra ph",
      "ti c",
      "sc rapy",
      "const ra",
      "S ql",
      "W T",
      "i date",
      "S k",
      "Multi pro",
      "que ue",
      "f unc",
      "st rip",
      "ul ative",
      "ator s",
      "alph ab",
      "1 6",
      "bu cket",
      "Con t",
      "ive d",
      "i on",
      "th od",
      "Me thod",
      "C ase",
      "i an",
      "in v",
      "query set",
      "prox y",
      "3 d",
      "di vi",
      "g ning",
      "sol ute",
      "O n",
      "th ing",
      "chron ous",
      "S V",
      "ic s",
      "In valid",
      "Th read",
      "U I",
      "as ing",
      "po ol",
      "wi ll",
      "te m",
      "Re placing",
      "l int",
      "di agon",
      "res et",
      "practi ce",
      "W ord",
      "f ut",
      "vector s",
      "UT F",
      "util s",
      "O T",
      "S ph",
      "co ok",
      "al ign",
      "et c",
      "thread s",
      "fore ign",
      "le ast",
      "urllib 2",
      "W or",
      "ke h",
      "Py spark",
      "igh ted",
      "Spe ci",
      "who le",
      "near est",
      "M ongo",
      "ma th",
      "on es",
      "to t",
      "F rom",
      "ab stract",
      "cur sor",
      "me t",
      "i python",
      "Co mb",
      "fix ed",
      "Ret ri",
      "S aving",
      "f etch",
      "mat rices",
      "be en",
      "00 00",
      "Net work",
      "B et",
      "an e",
      "Recur sive",
      "b ad",
      "Con caten",
      "Com bin",
      "comp o",
      "AS CI",
      "Pa th",
      "ASCI I",
      "en thes",
      "ch rome",
      "Con fig",
      "j ob",
      "in ner",
      "Sci py",
      "look up",
      "e ded",
      "en si",
      "al o",
      "Co uld",
      "star ting",
      "s che",
      "in es",
      "de ep",
      "s lash",
      "Lab el",
      "Sph inx",
      "R u",
      "yth ing",
      "am ing",
      "path s",
      "sol ution",
      "con tour",
      "ble ms",
      "new line",
      "mb ol",
      "P ick",
      "d le",
      "amp ling",
      "m it",
      "pre cision",
      "Me mory",
      "time delta",
      "as es",
      "s w",
      "man ager",
      "ent ry",
      "is n",
      "od y",
      "Dif fer",
      "choi ce",
      "g i",
      "se lected",
      "plot ting",
      "Co py",
      "fe ature",
      "metri c",
      "r no",
      "bl ank",
      "al y",
      "lo ss",
      "ou gh",
      "direct ly",
      "R el",
      "un known",
      "map ping",
      "larg est",
      "al k",
      "it self",
      "pro blem",
      "Order ed",
      "ier arch",
      "T H",
      "y aml",
      "di r",
      "P ri",
      "S how",
      "ob tain",
      "delim iter",
      "t urn",
      "are a",
      "Ru by",
      "A s",
      "ti fic",
      "script s",
      "1 D",
      "m illi",
      "di ent",
      "de te",
      "be h",
      "Trans form",
      "cont rol",
      "web site",
      "long est",
      "de al",
      "inter face",
      "run time",
      "c ated",
      "li sh",
      "Un it",
      "enum er",
      "f latten",
      "ra i",
      "Py dantic",
      "Val ues",
      "D raw",
      "f la",
      "k er",
      "ab solute",
      "D A",
      "G PU",
      "n l",
      "le ting",
      "ser ting",
      "Comb ine",
      "C ap",
      "M erging",
      "comp ati",
      "min utes",
      "inclu ding",
      "R ow",
      "sh uff",
      "he at",
      "De cimal",
      "au dio",
      "contain er",
      "None Type",
      "poly gon",
      "p ur",
      "A R",
      "G rid",
      "i ther",
      "folder s",
      "Sci kit",
      "tick s",
      "M in",
      "Syn tax",
      "c ut",
      "sh ift",
      "no des",
      "cor out",
      "e val",
      "f ree",
      "keep ing",
      "B as",
      "An y",
      "depend ent",
      "remo te",
      "bra cket",
      "amo unt",
      "V is",
      "us h",
      "so up",
      "c lear",
      "Au to",
      "ri ve",
      "gre ater",
      "form s",
      "filter ing",
      "Per form",
      "SQL ite",
      "th row",
      "m ongo",
      "data class",
      "pa che",
      "dep th",
      "multip ly",
      "AN D",
      "con figure",
      "du al",
      "cor respon",
      "ss l",
      "c r",
      "ir flow",
      "Select ing",
      "i e",
      "s witch",
      "Er rno",
      "ac cept",
      "alo g",
      "u ted",
      "par enthes",
      "giv ing",
      "as ci",
      "Arg ument",
      "cap ture",
      "ta il",
      "open pyxl",
      "Op tim",
      "For e",
      "in fo",
      "ction s",
      "qu o",
      "Boo lean",
      "Col ab",
      "sequ ences",
      "Test ing",
      "UT C",
      "I G",
      "t s",
      "asci i",
      "T up",
      "stat s",
      "Vari able",
      "r ate",
      "ty ping",
      "ac ti",
      "Log ging",
      "Fore ign",
      "z ure",
      "show ing",
      "log ger",
      "posi tive",
      "chan nel",
      "is es",
      "Bu il",
      "py torch",
      "De cor",
      "odb c"
    ]
  }
}